{
  "version": "1.0",
  "truncation": null,
  "padding": null,
  "added_tokens": [
    {
      "id": 0,
      "content": "<pad>",
      "single_word": false,
      "lstrip": false,
      "rstrip": false,
      "normalized": false,
      "special": true
    },
    {
      "id": 1,
      "content": "<bos>",
      "single_word": false,
      "lstrip": false,
      "rstrip": false,
      "normalized": false,
      "special": true
    },
    {
      "id": 2,
      "content": "<eos>",
      "single_word": false,
      "lstrip": false,
      "rstrip": false,
      "normalized": false,
      "special": true
    },
    {
      "id": 3,
      "content": "<unk>",
      "single_word": false,
      "lstrip": false,
      "rstrip": false,
      "normalized": false,
      "special": true
    }
  ],
  "normalizer": null,
  "pre_tokenizer": {
    "type": "ByteLevel",
    "add_prefix_space": false,
    "trim_offsets": true,
    "use_regex": true
  },
  "post_processor": null,
  "decoder": {
    "type": "ByteLevel",
    "add_prefix_space": true,
    "trim_offsets": true,
    "use_regex": true
  },
  "model": {
    "type": "BPE",
    "dropout": null,
    "unk_token": "<unk>",
    "continuing_subword_prefix": null,
    "end_of_word_suffix": null,
    "fuse_unk": false,
    "byte_fallback": false,
    "ignore_merges": false,
    "vocab": {
      "<pad>": 0,
      "<bos>": 1,
      "<eos>": 2,
      "<unk>": 3,
      "!": 4,
      "\"": 5,
      "#": 6,
      "$": 7,
      "%": 8,
      "&": 9,
      "'": 10,
      "(": 11,
      ")": 12,
      "*": 13,
      "+": 14,
      ",": 15,
      "-": 16,
      ".": 17,
      "/": 18,
      "0": 19,
      "1": 20,
      "2": 21,
      "3": 22,
      "4": 23,
      "5": 24,
      "6": 25,
      "7": 26,
      "8": 27,
      "9": 28,
      ":": 29,
      ";": 30,
      "<": 31,
      "=": 32,
      ">": 33,
      "?": 34,
      "@": 35,
      "A": 36,
      "B": 37,
      "C": 38,
      "D": 39,
      "E": 40,
      "F": 41,
      "G": 42,
      "H": 43,
      "I": 44,
      "J": 45,
      "K": 46,
      "L": 47,
      "M": 48,
      "N": 49,
      "O": 50,
      "P": 51,
      "Q": 52,
      "R": 53,
      "S": 54,
      "T": 55,
      "U": 56,
      "V": 57,
      "W": 58,
      "X": 59,
      "Y": 60,
      "Z": 61,
      "[": 62,
      "\\": 63,
      "]": 64,
      "^": 65,
      "_": 66,
      "`": 67,
      "a": 68,
      "b": 69,
      "c": 70,
      "d": 71,
      "e": 72,
      "f": 73,
      "g": 74,
      "h": 75,
      "i": 76,
      "j": 77,
      "k": 78,
      "l": 79,
      "m": 80,
      "n": 81,
      "o": 82,
      "p": 83,
      "q": 84,
      "r": 85,
      "s": 86,
      "t": 87,
      "u": 88,
      "v": 89,
      "w": 90,
      "x": 91,
      "y": 92,
      "z": 93,
      "{": 94,
      "|": 95,
      "}": 96,
      "~": 97,
      "¡": 98,
      "¢": 99,
      "£": 100,
      "¤": 101,
      "¥": 102,
      "¦": 103,
      "§": 104,
      "¨": 105,
      "©": 106,
      "ª": 107,
      "«": 108,
      "¬": 109,
      "®": 110,
      "¯": 111,
      "°": 112,
      "±": 113,
      "²": 114,
      "³": 115,
      "´": 116,
      "µ": 117,
      "¶": 118,
      "·": 119,
      "¸": 120,
      "¹": 121,
      "º": 122,
      "»": 123,
      "¼": 124,
      "½": 125,
      "¾": 126,
      "¿": 127,
      "À": 128,
      "Á": 129,
      "Â": 130,
      "Ã": 131,
      "Ä": 132,
      "Å": 133,
      "Æ": 134,
      "Ç": 135,
      "È": 136,
      "É": 137,
      "Ê": 138,
      "Ë": 139,
      "Ì": 140,
      "Í": 141,
      "Î": 142,
      "Ï": 143,
      "Ð": 144,
      "Ñ": 145,
      "Ò": 146,
      "Ó": 147,
      "Ô": 148,
      "Õ": 149,
      "Ö": 150,
      "×": 151,
      "Ø": 152,
      "Ù": 153,
      "Ú": 154,
      "Û": 155,
      "Ü": 156,
      "Ý": 157,
      "Þ": 158,
      "ß": 159,
      "à": 160,
      "á": 161,
      "â": 162,
      "ã": 163,
      "ä": 164,
      "å": 165,
      "æ": 166,
      "ç": 167,
      "è": 168,
      "é": 169,
      "ê": 170,
      "ë": 171,
      "ì": 172,
      "í": 173,
      "î": 174,
      "ï": 175,
      "ð": 176,
      "ñ": 177,
      "ò": 178,
      "ó": 179,
      "ô": 180,
      "õ": 181,
      "ö": 182,
      "÷": 183,
      "ø": 184,
      "ù": 185,
      "ú": 186,
      "û": 187,
      "ü": 188,
      "ý": 189,
      "þ": 190,
      "ÿ": 191,
      "Ā": 192,
      "ā": 193,
      "Ă": 194,
      "ă": 195,
      "Ą": 196,
      "ą": 197,
      "Ć": 198,
      "ć": 199,
      "Ĉ": 200,
      "ĉ": 201,
      "Ċ": 202,
      "ċ": 203,
      "Č": 204,
      "č": 205,
      "Ď": 206,
      "ď": 207,
      "Đ": 208,
      "đ": 209,
      "Ē": 210,
      "ē": 211,
      "Ĕ": 212,
      "ĕ": 213,
      "Ė": 214,
      "ė": 215,
      "Ę": 216,
      "ę": 217,
      "Ě": 218,
      "ě": 219,
      "Ĝ": 220,
      "ĝ": 221,
      "Ğ": 222,
      "ğ": 223,
      "Ġ": 224,
      "ġ": 225,
      "Ģ": 226,
      "ģ": 227,
      "Ĥ": 228,
      "ĥ": 229,
      "Ħ": 230,
      "ħ": 231,
      "Ĩ": 232,
      "ĩ": 233,
      "Ī": 234,
      "ī": 235,
      "Ĭ": 236,
      "ĭ": 237,
      "Į": 238,
      "į": 239,
      "İ": 240,
      "ı": 241,
      "Ĳ": 242,
      "ĳ": 243,
      "Ĵ": 244,
      "ĵ": 245,
      "Ķ": 246,
      "ķ": 247,
      "ĸ": 248,
      "Ĺ": 249,
      "ĺ": 250,
      "Ļ": 251,
      "ļ": 252,
      "Ľ": 253,
      "ľ": 254,
      "Ŀ": 255,
      "ŀ": 256,
      "Ł": 257,
      "ł": 258,
      "Ń": 259,
      "Ġt": 260,
      "he": 261,
      "Ġa": 262,
      "Ġi": 263,
      "Ġthe": 264,
      "on": 265,
      "re": 266,
      "at": 267,
      "in": 268,
      "Ġs": 269,
      "er": 270,
      "Ġc": 271,
      "Ġis": 272,
      "Ġo": 273,
      "le": 274,
      "ti": 275,
      "en": 276,
      "al": 277,
      "or": 278,
      "Ġp": 279,
      "Ġf": 280,
      "Ġw": 281,
      "es": 282,
      "an": 283,
      "Ġb": 284,
      "Ġan": 285,
      "ed": 286,
      "Ġof": 287,
      "ar": 288,
      "Ġd": 289,
      "ing": 290,
      "ro": 291,
      "is": 292,
      "it": 293,
      "Ġm": 294,
      "Ġth": 295,
      "Ġin": 296,
      "Ġto": 297,
      "ou": 298,
      "ic": 299,
      "tion": 300,
      "Ġand": 301,
      "ĠT": 302,
      "st": 303,
      "Ġn": 304,
      "ra": 305,
      "Ġ$": 306,
      "Ġe": 307,
      "ve": 308,
      "ion": 309,
      "om": 310,
      "et": 311,
      "ĠI": 312,
      "Ġh": 313,
      "ow": 314,
      "ol": 315,
      "as": 316,
      "ot": 317,
      "ct": 318,
      "Ġl": 319,
      "ig": 320,
      "Ġre": 321,
      "ation": 322,
      "Ġ\\": 323,
      "Ġcon": 324,
      "Ġthat": 325,
      "Ġthen": 326,
      "ent": 327,
      "Ġ1": 328,
      "ĠThe": 329,
      "un": 330,
      "Ġg": 331,
      "Ġ(": 332,
      "um": 333,
      "ly": 334,
      "ce": 335,
      "se": 336,
      "ut": 337,
      "âĢ": 338,
      "Ġ2": 339,
      "ĠA": 340,
      "Ġfor": 341,
      "ore": 342,
      "ĠS": 343,
      "##": 344,
      "Ġbe": 345,
      "Ġv": 346,
      "Ġon": 347,
      "qu": 348,
      "ll": 349,
      "Ġpro": 350,
      "im": 351,
      "de": 352,
      "Ġy": 353,
      "ul": 354,
      "ch": 355,
      "Ġif": 356,
      "Ġst": 357,
      "am": 358,
      "ss": 359,
      "ĠC": 360,
      "ble": 361,
      "ue": 362,
      "Ġit": 363,
      "em": 364,
      "Ġ=": 365,
      "ith": 366,
      "Ġtr": 367,
      "ĠP": 368,
      "ver": 369,
      "te": 370,
      "fore": 371,
      "igh": 372,
      "Ġu": 373,
      "Ġyou": 374,
      "ction": 375,
      "ĠThere": 376,
      "Ġex": 377,
      "ple": 378,
      "Âł": 379,
      "ag": 380,
      "ĠW": 381,
      "ĠM": 382,
      "Ġare": 383,
      "ĠTherefore": 384,
      "id": 385,
      "Ġcom": 386,
      "ur": 387,
      "ĠR": 388,
      "$$": 389,
      "os": 390,
      "ĠB": 391,
      "ĠF": 392,
      "ure": 393,
      "Ġwith": 394,
      "ay": 395,
      "if": 396,
      "ath": 397,
      "pp": 398,
      "ir": 399,
      "Ġwe": 400,
      "ate": 401,
      "Ġthis": 402,
      "Ġk": 403,
      "ight": 404,
      "ri": 405,
      "00": 406,
      "Ġde": 407,
      "ĠD": 408,
      "il": 409,
      "Ġr": 410,
      "Ġat": 411,
      "Ġwh": 412,
      "Ġas": 413,
      "ine": 414,
      "ist": 415,
      "ad": 416,
      "int": 417,
      "Ġ-": 418,
      "Ġtrue": 419,
      "Ġcan": 420,
      "per": 421,
      "ld": 422,
      "rac": 423,
      "ĠH": 424,
      "ĠE": 425,
      "}{": 426,
      "pl": 427,
      "able": 428,
      "Ġor": 429,
      "ter": 430,
      "..": 431,
      "iv": 432,
      "Ġby": 433,
      "pe": 434,
      "ĠĠ": 435,
      "ck": 436,
      "rom": 437,
      "ave": 438,
      "âĢ¢": 439,
      "tic": 440,
      "Ġ3": 441,
      "Ġse": 442,
      "Ġle": 443,
      "Ġen": 444,
      "her": 445,
      "ity": 446,
      "now": 447,
      "Ġdo": 448,
      "Ġ$$": 449,
      "ers": 450,
      "od": 451,
      "Ġal": 452,
      "Ġnot": 453,
      "and": 454,
      "frac": 455,
      "ĠL": 456,
      "ĠIf": 457,
      "Ġknow": 458,
      "ces": 459,
      "Ġsu": 460,
      "ĠG": 461,
      "ge": 462,
      "Ġ0": 463,
      "th": 464,
      "_{": 465,
      "ĠN": 466,
      "ode": 467,
      "Ġval": 468,
      "Ġhave": 469,
      "ations": 470,
      "^{": 471,
      "ren": 472,
      "ta": 473,
      "tive": 474,
      "unction": 475,
      "Ġ+": 476,
      "ect": 477,
      "Ġ$\\": 478,
      "us": 479,
      "Ġus": 480,
      "}$": 481,
      "ant": 482,
      "01": 483,
      "Ġne": 484,
      "ari": 485,
      "ke": 486,
      "Ġfrom": 487,
      "Ġlo": 488,
      "Ġfunction": 489,
      "ment": 490,
      "und": 491,
      "ph": 492,
      "res": 493,
      "ition": 494,
      "pt": 495,
      "Ġpo": 496,
      "ould": 497,
      "Ġass": 498,
      "old": 499,
      "lo": 500,
      "ich": 501,
      "Ġab": 502,
      "ft": 503,
      "ule": 504,
      "ĠWe": 505,
      "ber": 506,
      "Ġsh": 507,
      "Ġx": 508,
      "Ġqu": 509,
      "ĠTh": 510,
      "ome": 511,
      "low": 512,
      "Ġcont": 513,
      "ill": 514,
      "here": 515,
      "ĠO": 516,
      "ally": 517,
      "ie": 518,
      "ption": 519,
      "age": 520,
      "Ġme": 521,
      "math": 522,
      "orm": 523,
      "Ġma": 524,
      "ĠâĢ": 525,
      "ong": 526,
      "Ġ4": 527,
      "Ġnum": 528,
      "Ġcl": 529,
      "xt": 530,
      "ĠIn": 531,
      "Ġch": 532,
      "fe": 533,
      "fin": 534,
      "ab": 535,
      "rad": 536,
      "so": 537,
      "Ġcomple": 538,
      "ĠU": 539,
      "{\\": 540,
      "ind": 541,
      "Ġassum": 542,
      "--": 543,
      "end": 544,
      "Ġequ": 545,
      "pa": 546,
      "oun": 547,
      "ign": 548,
      "iz": 549,
      "Ġsy": 550,
      "ust": 551,
      "The": 552,
      "Ġset": 553,
      "oth": 554,
      "Ġall": 555,
      "ive": 556,
      "ies": 557,
      "Ġpre": 558,
      "Ġwhich": 559,
      "ite": 560,
      "Ġpar": 561,
      "ip": 562,
      "ution": 563,
      "ĠV": 564,
      "Ġim": 565,
      "Ġac": 566,
      "ang": 567,
      "ass": 568,
      "ated": 569,
      "ĠJ": 570,
      "feren": 571,
      "du": 572,
      "est": 573,
      "Ġvari": 574,
      "###": 575,
      "}\\": 576,
      "'s": 577,
      "ous": 578,
      "ult": 579,
      "to": 580,
      "ied": 581,
      "el": 582,
      "our": 583,
      "cess": 584,
      "Ġbut": 585,
      "Ġwill": 586,
      "Ġ\"": 587,
      "Ġone": 588,
      "stem": 589,
      "Ġpath": 590,
      "ase": 591,
      "Ġ5": 592,
      "Ġres": 593,
      "wo": 594,
      "ĠY": 595,
      "hen": 596,
      "Ġconst": 597,
      "right": 598,
      "ans": 599,
      "Ġun": 600,
      "put": 601,
      "ork": 602,
      "estion": 603,
      "tim": 604,
      "ile": 605,
      ").": 606,
      "ort": 607,
      "ci": 608,
      "ame": 609,
      "Ġcomplete": 610,
      "Ġstr": 611,
      "ard": 612,
      "ĠThis": 613,
      "ical": 614,
      "cl": 615,
      "Ġ201": 616,
      "Ġeng": 617,
      "Ġso": 618,
      "ample": 619,
      "Ġapp": 620,
      "act": 621,
      "Ġvalue": 622,
      "ther": 623,
      "ach": 624,
      "ps": 625,
      "Ġ{": 626,
      "Ġgro": 627,
      "Ġtwo": 628,
      "Ġhe": 629,
      "out": 630,
      "ma": 631,
      "all": 632,
      "ens": 633,
      "Ġsystem": 634,
      "ove": 635,
      "ff": 636,
      "Ġrel": 637,
      "ub": 638,
      "Ġsim": 639,
      "og": 640,
      "Ġsol": 641,
      "irc": 642,
      "ide": 643,
      ")$": 644,
      "ary": 645,
      "âĢĻ": 646,
      "ĠQ": 647,
      "If": 648,
      "blem": 649,
      "dition": 650,
      "ost": 651,
      "iction": 652,
      "ollow": 653,
      "Ġmat": 654,
      "Ġform": 655,
      "Ġ'": 656,
      "Ġassumption": 657,
      "Ġdefin": 658,
      "erm": 659,
      "ature": 660,
      "Ġthere": 661,
      "iven": 662,
      "ime": 663,
      "Ġhas": 664,
      "Ġsome": 665,
      "Ġcontrad": 666,
      "red": 667,
      "ance": 668,
      "atis": 669,
      "Ġj": 670,
      "Ġuse": 671,
      "),": 672,
      "ents": 673,
      "...": 674,
      "left": 675,
      "Ġnon": 676,
      "Ġboth": 677,
      "Ġdif": 678,
      "ence": 679,
      "ud": 680,
      "Ġfollow": 681,
      "ning": 682,
      "ok": 683,
      "Ġwas": 684,
      "li": 685,
      "Ġnumber": 686,
      "Ġvariable": 687,
      "ery": 688,
      "Ġyour": 689,
      "Ġ&": 690,
      "of": 691,
      "form": 692,
      "con": 693,
      "Ġpl": 694,
      "Ġalso": 695,
      "ric": 696,
      "10": 697,
      "Ġpos": 698,
      "ata": 699,
      "Ġop": 700,
      "}}": 701,
      "tial": 702,
      "Ġad": 703,
      "ord": 704,
      "ĠâĢĵ": 705,
      "Ġ[": 706,
      "ose": 707,
      "ĠX": 708,
      "ys": 709,
      "ca": 710,
      "ĠĠĠĠ": 711,
      "itive": 712,
      "Ġany": 713,
      "Ġinte": 714,
      "ack": 715,
      "ator": 716,
      "Ġout": 717,
      "Ġar": 718,
      "Ġsign": 719,
      "Ġli": 720,
      "ics": 721,
      "Ġcontradiction": 722,
      "Ġpoint": 723,
      "'t": 724,
      "Ġproblem": 725,
      "ĠRule": 726,
      "ree": 727,
      "Ġ6": 728,
      "ener": 729,
      "text": 730,
      "irst": 731,
      "Ġcirc": 732,
      "ĠAn": 733,
      "Ġhow": 734,
      "__": 735,
      "gh": 736,
      "Ġper": 737,
      "hem": 738,
      "rib": 739,
      "we": 740,
      "ear": 741,
      "Ġob": 742,
      "Ġprocess": 743,
      "osed": 744,
      "Ġco": 745,
      "ry": 746,
      "ĠZ": 747,
      "ory": 748,
      "ast": 749,
      "art": 750,
      "Ġdifferen": 751,
      "ining": 752,
      "ound": 753,
      "eth": 754,
      "Ġexist": 755,
      "Ġusing": 756,
      "ne": 757,
      "Ġquestion": 758,
      "ial": 759,
      "Ġconver": 760,
      "Ġwould": 761,
      "Ġhold": 762,
      "Ġro": 763,
      "av": 764,
      "Ġcondition": 765,
      "atisf": 766,
      "ĠK": 767,
      "hat": 768,
      "com": 769,
      "up": 770,
      "In": 771,
      "Ġabove": 772,
      "Ġsatisf": 773,
      "ac": 774,
      "Ġdis": 775,
      "Ġspe": 776,
      "Ġrun": 777,
      "$.": 778,
      "Ġget": 779,
      "Ġsub": 780,
      "Ġpositive": 781,
      "ram": 782,
      "Ġcal": 783,
      "Ġ10": 784,
      "Ġother": 785,
      "odel": 786,
      "Ġmore": 787,
      "ain": 788,
      "ess": 789,
      "ject": 790,
      "Ġwhat": 791,
      "ative": 792,
      "ak": 793,
      "are": 794,
      "Ġwork": 795,
      "Ġhigh": 796,
      "Ġele": 797,
      "12": 798,
      "Ġbet": 799,
      "cul": 800,
      "raint": 801,
      "Ġtem": 802,
      "one": 803,
      "Ġam": 804,
      "Ġdi": 805,
      "ress": 806,
      "Ġ.": 807,
      "Ġdefined": 808,
      "Ġconstraint": 809,
      "pon": 810,
      "Ġlike": 811,
      "Ġopen": 812,
      "ges": 813,
      "Ġonly": 814,
      "Ġno": 815,
      "ep": 816,
      "Ġtime": 817,
      "eg": 818,
      "Ġproof": 819,
      "the": 820,
      "Ġinter": 821,
      "ink": 822,
      "Ġra": 823,
      "Ġmy": 824,
      "Ġline": 825,
      "Ġ$$\\": 826,
      "perature": 827,
      "Th": 828,
      "ĠBut": 829,
      "use": 830,
      "nect": 831,
      "ates": 832,
      "Ġfirst": 833,
      "Ġwhere": 834,
      "Ġlight": 835,
      "Ġdist": 836,
      "mathb": 837,
      "Ġsatisfied": 838,
      "Ġwr": 839,
      "20": 840,
      "Ġtemperature": 841,
      "(\\": 842,
      "Ġdata": 843,
      "uit": 844,
      "Ġ7": 845,
      "Ġgener": 846,
      "sw": 847,
      "ular": 848,
      "Ġabout": 849,
      "cal": 850,
      "Ġsignal": 851,
      "Ġgo": 852,
      "Ġinteg": 853,
      "Ġwhen": 854,
      "Ġeach": 855,
      "Ġte": 856,
      "empt": 857,
      "Ġthan": 858,
      "Ġpress": 859,
      "les": 860,
      "ors": 861,
      "Ġ:": 862,
      "hip": 863,
      "rect": 864,
      "tain": 865,
      "Ġfind": 866,
      "par": 867,
      "Ġclosed": 868,
      "Ġexample": 869,
      "Ġneed": 870,
      "ads": 871,
      "Ġ8": 872,
      "=\\": 873,
      "Ġrelations": 874,
      "Ġexists": 875,
      "$,": 876,
      "}$$": 877,
      "Ġman": 878,
      "nected": 879,
      "raph": 880,
      "rt": 881,
      "Ġpressure": 882,
      "Ġcor": 883,
      "alse": 884,
      "ince": 885,
      "Ġcircuit": 886,
      "Ġsw": 887,
      "op": 888,
      "Ġmodel": 889,
      "}^{": 890,
      "Ġ9": 891,
      "Ġev": 892,
      "under": 893,
      "Ġstrong": 894,
      "Ġnode": 895,
      "----": 896,
      "Ġrelationship": 897,
      "rm": 898,
      "Ġshow": 899,
      "resh": 900,
      "Ġground": 901,
      "11": 902,
      "pace": 903,
      "cre": 904,
      "$\\": 905,
      "Ġengine": 906,
      "Ġrunning": 907,
      "itch": 908,
      "Ġdoes": 909,
      "Ġsuch": 910,
      "ng": 911,
      "qrt": 912,
      "ĠIt": 913,
      "led": 914,
      "Ġup": 915,
      "ĠAl": 916,
      "Ġvalid": 917,
      "ap": 918,
      "der": 919,
      "ange": 920,
      "Ġgiven": 921,
      "We": 922,
      "ility": 923,
      "Ġconnected": 924,
      "ween": 925,
      "ulti": 926,
      "Ġfalse": 927,
      "reshold": 928,
      "Ġour": 929,
      "Ġcons": 930,
      "Ġsolution": 931,
      "Ġthreshold": 932,
      "rix": 933,
      "ov": 934,
      "ace": 935,
      "Ġused": 936,
      "Ġve": 937,
      "Ġswitch": 938,
      "ions": 939,
      "ays": 940,
      "Ġsame": 941,
      "ating": 942,
      "dot": 943,
      "Ġunder": 944,
      "Ġbetween": 945,
      "hemat": 946,
      "Ġits": 947,
      "Ġlock": 948,
      "Ġz": 949,
      "Ġequation": 950,
      "Ġresult": 951,
      "row": 952,
      "####": 953,
      "lipp": 954,
      "Ġholds": 955,
      "ĠRe": 956,
      "Ġtrans": 957,
      "ty": 958,
      "sqrt": 959,
      "iew": 960,
      "Ġ,": 961,
      "ru": 962,
      "Ġwet": 963,
      "Ġ20": 964,
      "Ġstable": 965,
      "Ġ|": 966,
      "Ġslipp": 967,
      "Ġdoor": 968,
      "Ġconverges": 969,
      "ties": 970,
      "ues": 971,
      "Ġslippery": 972,
      "aged": 973,
      "Ġleads": 974,
      "Ġbas": 975,
      "not": 976,
      "ane": 977,
      "ĠPro": 978,
      "lic": 979,
      "oc": 980,
      "ield": 981,
      "empty": 982,
      "Ġraining": 983,
      "Ġcol": 984,
      "ĠSt": 985,
      "Ġansw": 986,
      "Ġcur": 987,
      "Ġactive": 988,
      "Ġinto": 989,
      "ks": 990,
      "Ġpa": 991,
      "eta": 992,
      "Ġover": 993,
      "ethod": 994,
      "Ġfollowing": 995,
      "Ġdes": 996,
      "yn": 997,
      "ts": 998,
      "Ġ<": 999,
      "port": 1000,
      "its": 1001,
      "ible": 1002,
      "Ġengaged": 1003,
      "Ġthese": 1004,
      "Ġshould": 1005,
      "ib": 1006,
      "Ġjust": 1007,
      "Ġthey": 1008,
      "Ġcomm": 1009,
      "ual": 1010,
      "Ġ200": 1011,
      "ize": 1012,
      "line": 1013,
      "resent": 1014,
      "ting": 1015,
      "Ġnew": 1016,
      "times": 1017,
      "19": 1018,
      "ĠFor": 1019,
      "pi": 1020,
      "bers": 1021,
      "Ġty": 1022,
      "ĠHow": 1023,
      "ron": 1024,
      "Ġcalcul": 1025,
      "ec": 1026,
      "ia": 1027,
      "ise": 1028,
      "ments": 1029,
      "ctor": 1030,
      "Ġexp": 1031,
      "ian": 1032,
      "ific": 1033,
      "//": 1034,
      "Ġterm": 1035,
      "olog": 1036,
      "15": 1037,
      "play": 1038,
      "Ġprodu": 1039,
      "ument": 1040,
      "pr": 1041,
      "Ġsee": 1042,
      "This": 1043,
      "Ġclass": 1044,
      "Ġ12": 1045,
      "Ġph": 1046,
      "ĠCon": 1047,
      "very": 1048,
      "ix": 1049,
      "pend": 1050,
      "val": 1051,
      "Ġwant": 1052,
      "yle": 1053,
      "ÂłÂł": 1054,
      "ral": 1055,
      "vers": 1056,
      "13": 1057,
      "Ġmulti": 1058,
      "gy": 1059,
      "}{\\": 1060,
      "Ġway": 1061,
      "angle": 1062,
      "mathbb": 1063,
      "},": 1064,
      "Ġbeing": 1065,
      "Ġmethod": 1066,
      "Ġanswer": 1067,
      "To": 1068,
      "Ġsc": 1069,
      "Ġfact": 1070,
      "rent": 1071,
      "Ġfile": 1072,
      "Ġappro": 1073,
      "ĠEx": 1074,
      "bra": 1075,
      "ug": 1076,
      "cause": 1077,
      "Ġfe": 1078,
      "Ġprove": 1079,
      "pro": 1080,
      "ser": 1081,
      "enti": 1082,
      "Ġdifferent": 1083,
      "Ġreg": 1084,
      "Ġâ": 1085,
      "Ġ19": 1086,
      "Ġstat": 1087,
      "ough": 1088,
      "cond": 1089,
      "bab": 1090,
      "ater": 1091,
      "ithm": 1092,
      "Ġag": 1093,
      "Ġcase": 1094,
      "ced": 1095,
      "len": 1096,
      "16": 1097,
      "ĠCh": 1098,
      "ower": 1099,
      "xim": 1100,
      "rou": 1101,
      "urn": 1102,
      "lis": 1103,
      "egin": 1104,
      "Ġpr": 1105,
      "ook": 1106,
      "14": 1107,
      ")=": 1108,
      "Ġinst": 1109,
      ")\\": 1110,
      "Ġchar": 1111,
      "cdot": 1112,
      "ffic": 1113,
      "amet": 1114,
      "Ġthem": 1115,
      "Ġstud": 1116,
      "Ġhel": 1117,
      "ĠCom": 1118,
      "ings": 1119,
      "Ġmust": 1120,
      "dis": 1121,
      "tt": 1122,
      "vel": 1123,
      "Ġadd": 1124,
      "Ġhere": 1125,
      "Ġmay": 1126,
      "begin": 1127,
      "ex": 1128,
      "Ġlook": 1129,
      "ĠFrom": 1130,
      "gor": 1131,
      "'m": 1132,
      "ously": 1133,
      "ĠUn": 1134,
      "Ġdon": 1135,
      "asure": 1136,
      "hed": 1137,
      "Ġrep": 1138,
      "tical": 1139,
      "ym": 1140,
      "ole": 1141,
      "ract": 1142,
      "gebra": 1143,
      "Ġprov": 1144,
      "ĠMat": 1145,
      "Ġpol": 1146,
      "Ġnumbers": 1147,
      "ational": 1148,
      "Ġspace": 1149,
      "cent": 1150,
      "ake": 1151,
      "style": 1152,
      "201": 1153,
      "ick": 1154,
      "Ġsm": 1155,
      "Ġcomput": 1156,
      "set": 1157,
      "inal": 1158,
      "))": 1159,
      "17": 1160,
      "ount": 1161,
      "18": 1162,
      "Ġser": 1163,
      "ark": 1164,
      "Ġthink": 1165,
      "ctions": 1166,
      "vi": 1167,
      "mathrm": 1168,
      "Ġassume": 1169,
      "Ġmin": 1170,
      "plies": 1171,
      "Ġtheir": 1172,
      "ribution": 1173,
      "Ġfield": 1174,
      "Ġbeen": 1175,
      "Rule": 1176,
      "ten": 1177,
      "Ġpartic": 1178,
      "ient": 1179,
      "omet": 1180,
      "Given": 1181,
      "ice": 1182,
      "}_{": 1183,
      "Ġright": 1184,
      "ever": 1185,
      "Ġcomp": 1186,
      "ray": 1187,
      "Ġes": 1188,
      "plic": 1189,
      "Ġfollows": 1190,
      "ĠWhat": 1191,
      "ĠÂł": 1192,
      "ote": 1193,
      "Ġcould": 1194,
      "ergy": 1195,
      "Ġmany": 1196,
      "Ġbecause": 1197,
      "uch": 1198,
      "Ġstatem": 1199,
      "pect": 1200,
      "Ġ>": 1201,
      "Ġhelp": 1202,
      "Ġdet": 1203,
      "ox": 1204,
      "Ġmean": 1205,
      "Ġmake": 1206,
      "ell": 1207,
      "Ġed": 1208,
      "Ġ...": 1209,
      "ĠQu": 1210,
      "sin": 1211,
      "Ġposs": 1212,
      "upp": 1213,
      "lect": 1214,
      "display": 1215,
      "000": 1216,
      "ĠSo": 1217,
      "fter": 1218,
      "ngth": 1219,
      "sc": 1220,
      "25": 1221,
      "Ġelect": 1222,
      "Ġ*": 1223,
      "formation": 1224,
      "cy": 1225,
      "âĢĿ": 1226,
      "work": 1227,
      "Ġcode": 1228,
      "cept": 1229,
      "Ġ/": 1230,
      "Ġorder": 1231,
      "Ġtop": 1232,
      "Ġsp": 1233,
      "Ġanal": 1234,
      "Ġ15": 1235,
      "Ġprobab": 1236,
      "Ġmeasure": 1237,
      "Ġoper": 1238,
      "Ġformul": 1239,
      "Ġvalues": 1240,
      "ages": 1241,
      "Ġevery": 1242,
      "Ġsecond": 1243,
      "Ġmod": 1244,
      "Ġspec": 1245,
      "Ġproper": 1246,
      "ension": 1247,
      ",\\": 1248,
      "Ġext": 1249,
      "pha": 1250,
      "AT": 1251,
      "Ġ\\\\": 1252,
      "Ġsum": 1253,
      "displaystyle": 1254,
      "log": 1255,
      "tern": 1256,
      ")$$": 1257,
      "Ġgraph": 1258,
      "cos": 1259,
      "Ġcannot": 1260,
      "ider": 1261,
      "ĠYou": 1262,
      "iss": 1263,
      "uth": 1264,
      "ually": 1265,
      "stand": 1266,
      "Ġpost": 1267,
      "io": 1268,
      "tit": 1269,
      "-\\": 1270,
      "ude": 1271,
      "Ġmatrix": 1272,
      "cur": 1273,
      "Ġreal": 1274,
      "____": 1275,
      "olution": 1276,
      ")^": 1277,
      "ail": 1278,
      ")(": 1279,
      "Ġinv": 1280,
      "ero": 1281,
      "Ġfunctions": 1282,
      "err": 1283,
      "Ġvery": 1284,
      "Ġsur": 1285,
      "Ġint": 1286,
      "sum": 1287,
      "ute": 1288,
      "Ġtest": 1289,
      "arrow": 1290,
      "Ġ}": 1291,
      "ĠâĢľ": 1292,
      "arg": 1293,
      "Ġstart": 1294,
      ");": 1295,
      "orem": 1296,
      "22": 1297,
      "rough": 1298,
      "Ġmost": 1299,
      "app": 1300,
      "own": 1301,
      "Ġgeneral": 1302,
      "theta": 1303,
      "Ġequal": 1304,
      "ines": 1305,
      "}(": 1306,
      "ull": 1307,
      "Ġem": 1308,
      "ved": 1309,
      "ĠThen": 1310,
      "ĠAlso": 1311,
      "Ġincl": 1312,
      "==": 1313,
      "for": 1314,
      "Ġenergy": 1315,
      "ons": 1316,
      "ful": 1317,
      "ying": 1318,
      "da": 1319,
      "andom": 1320,
      "Ġ11": 1321,
      "amb": 1322,
      "Ġ14": 1323,
      "Ġyear": 1324,
      "://": 1325,
      "Ġ16": 1326,
      "Ġpoints": 1327,
      "over": 1328,
      "cture": 1329,
      "fty": 1330,
      "30": 1331,
      "gorithm": 1332,
      "infty": 1333,
      "qui": 1334,
      "uppose": 1335,
      "ĠAnd": 1336,
      "ultane": 1337,
      "gram": 1338,
      "Ġequations": 1339,
      "ob": 1340,
      "Ġang": 1341,
      "alpha": 1342,
      "ression": 1343,
      "Ġsimultane": 1344,
      "Ġsqu": 1345,
      "ey": 1346,
      "Ġgroup": 1347,
      "ĠBoth": 1348,
      "uss": 1349,
      "An": 1350,
      "Ġbound": 1351,
      "ization": 1352,
      "Ġfin": 1353,
      "ither": 1354,
      "Ġ18": 1355,
      "Ġcorrect": 1356,
      "Ġsupp": 1357,
      "inu": 1358,
      "+\\": 1359,
      "ank": 1360,
      "Ġimplies": 1361,
      "Ġnow": 1362,
      "Ġ13": 1363,
      "Ġder": 1364,
      "$$\\": 1365,
      "Ġlim": 1366,
      "arge": 1367,
      "ource": 1368,
      "Ġwell": 1369,
      "ases": 1370,
      "ized": 1371,
      "Ġthrough": 1372,
      "Ġsimultaneously": 1373,
      "ically": 1374,
      "Ġexpl": 1375,
      "ax": 1376,
      "arch": 1377,
      "Ġwrong": 1378,
      "Ġcre": 1379,
      "Ġobject": 1380,
      "Ġvector": 1381,
      "ormal": 1382,
      "Ġdistribution": 1383,
      "Ġtra": 1384,
      "ology": 1385,
      "hes": 1386,
      "ides": 1387,
      "Ġpossible": 1388,
      "Ġver": 1389,
      "Ġdesc": 1390,
      "col": 1391,
      "ism": 1392,
      "Ġind": 1393,
      "Ġinde": 1394,
      "ted": 1395,
      "Ġhy": 1396,
      "Ġ#": 1397,
      "ots": 1398,
      "lf": 1399,
      "quen": 1400,
      "igure": 1401,
      "ĠSince": 1402,
      ".,": 1403,
      "Ġlist": 1404,
      "ctive": 1405,
      "ik": 1406,
      "ding": 1407,
      "Ġlog": 1408,
      "ĠSe": 1409,
      "Ġide": 1410,
      "Ġunderstand": 1411,
      "oint": 1412,
      "Ġparamet": 1413,
      "aw": 1414,
      "Ġeven": 1415,
      "Ġbased": 1416,
      "Ġlinear": 1417,
      "omial": 1418,
      "Ġwere": 1419,
      "Ġpaper": 1420,
      "Ġlet": 1421,
      "^{-": 1422,
      "Ġconstant": 1423,
      "eb": 1424,
      "ticle": 1425,
      "}^": 1426,
      "tal": 1427,
      "Ġerr": 1428,
      "ĠĠĠĠĠĠĠĠ": 1429,
      "Ġtheory": 1430,
      "Ġ@": 1431,
      "Ġvol": 1432,
      "rest": 1433,
      "round": 1434,
      "Ġtype": 1435,
      "Ġpart": 1436,
      "ined": 1437,
      "hematics": 1438,
      "Ġlength": 1439,
      "ambda": 1440,
      "Ġrad": 1441,
      "21": 1442,
      "Ġthree": 1443,
      "Ġdec": 1444,
      "Ġcurrent": 1445,
      "ivers": 1446,
      "Ġbelow": 1447,
      "Ġread": 1448,
      "ference": 1449,
      "andard": 1450,
      "ysis": 1451,
      "ÃĹ": 1452,
      "50": 1453,
      "For": 1454,
      "Ġdef": 1455,
      "ives": 1456,
      "Ġid": 1457,
      "Ġrepresent": 1458,
      "ply": 1459,
      "ere": 1460,
      "ume": 1461,
      "ential": 1462,
      "Ġsimple": 1463,
      "Ġdiv": 1464,
      "ĠNe": 1465,
      "Ġmass": 1466,
      "--------": 1467,
      "Ġdisc": 1468,
      "Ġformula": 1469,
      "Ġalgorithm": 1470,
      "other": 1471,
      "lim": 1472,
      "Suppose": 1473,
      "ĠSh": 1474,
      "Ġend": 1475,
      "Ġsing": 1476,
      "ĠMath": 1477,
      "Ġsym": 1478,
      "Ġact": 1479,
      "imension": 1480,
      "):": 1481,
      "mat": 1482,
      "mathcal": 1483,
      "\",": 1484,
      "Ġcomplex": 1485,
      "Ġcontain": 1486,
      "ier": 1487,
      "face": 1488,
      "Ġmuch": 1489,
      "Ġstru": 1490,
      "read": 1491,
      "Ġsince": 1492,
      "als": 1493,
      "Ġca": 1494,
      "Ġestim": 1495,
      "Ġrequi": 1496,
      "Ġsay": 1497,
      "Ġresults": 1498,
      "Ġeas": 1499,
      "igma": 1500,
      "Ġproduct": 1501,
      "Ġ17": 1502,
      "ĠPh": 1503,
      "Let": 1504,
      "ann": 1505,
      "ĠDe": 1506,
      "Ġmet": 1507,
      "ffect": 1508,
      "view": 1509,
      "rodu": 1510,
      "fer": 1511,
      "ho": 1512,
      "Ġlong": 1513,
      "Ġdeterm": 1514,
      "lease": 1515,
      "Ġfound": 1516,
      "Ġchange": 1517,
      "mathbf": 1518,
      "Ġfl": 1519,
      "ves": 1520,
      "Ġimport": 1521,
      "Ġconf": 1522,
      "quence": 1523,
      "Ġtim": 1524,
      "Ġcalled": 1525,
      "Ġrandom": 1526,
      "],": 1527,
      "23": 1528,
      "Ġexper": 1529,
      "chn": 1530,
      "Ġsmall": 1531,
      "Ġtext": 1532,
      "Ġterms": 1533,
      "ĠÂ": 1534,
      "ited": 1535,
      "Ġrat": 1536,
      "Ġtake": 1537,
      "Ġafter": 1538,
      "heck": 1539,
      "Ġopp": 1540,
      "Ġinput": 1541,
      "ilar": 1542,
      "99": 1543,
      "24": 1544,
      "Ġcent": 1545,
      "Ġderiv": 1546,
      "fic": 1547,
      "ometh": 1548,
      "tice": 1549,
      "mu": 1550,
      "ily": 1551,
      "Ġinformation": 1552,
      "Ex": 1553,
      "ward": 1554,
      "omething": 1555,
      "bl": 1556,
      "Re": 1557,
      "ĠTe": 1558,
      "stract": 1559,
      "Ġzero": 1560,
      "ĠIs": 1561,
      "Ġquestions": 1562,
      "ysics": 1563,
      "ĠTo": 1564,
      "be": 1565,
      "pos": 1566,
      "alen": 1567,
      "turn": 1568,
      "Ġbu": 1569,
      "Ġmeans": 1570,
      "Ġsolve": 1571,
      "\\\\": 1572,
      "Ġalgebra": 1573,
      "eps": 1574,
      "Ġvers": 1575,
      "Ġcharact": 1576,
      "#####": 1577,
      "Ġlevel": 1578,
      "py": 1579,
      "ton": 1580,
      "bit": 1581,
      "Ġ{\\": 1582,
      "Ġseries": 1583,
      "iqu": 1584,
      "Ġlear": 1585,
      "}=": 1586,
      "ins": 1587,
      "ven": 1588,
      "Ġseem": 1589,
      "ĠThese": 1590,
      "ict": 1591,
      "âĢĵ": 1592,
      "ern": 1593,
      "Ġincre": 1594,
      "phi": 1595,
      "orph": 1596,
      "ving": 1597,
      "ural": 1598,
      "ased": 1599,
      "Ġvariables": 1600,
      "$-": 1601,
      "Ġgre": 1602,
      "Ġtak": 1603,
      "Ġtri": 1604,
      "Ġprogram": 1605,
      "Ġ$(": 1606,
      "Ġback": 1607,
      "Ġprobability": 1608,
      "Ġstructure": 1609,
      "lear": 1610,
      "ember": 1611,
      "sh": 1612,
      "fficient": 1613,
      "Ġinterest": 1614,
      "ets": 1615,
      "lock": 1616,
      "Ġoutput": 1617,
      "bol": 1618,
      "eomet": 1619,
      "istic": 1620,
      "}$.": 1621,
      "osite": 1622,
      "raw": 1623,
      "verse": 1624,
      "equ": 1625,
      "Ġdid": 1626,
      "Ġacc": 1627,
      "cial": 1628,
      "anks": 1629,
      "Ġarea": 1630,
      "ration": 1631,
      "Ġintegral": 1632,
      "ross": 1633,
      "Ġperform": 1634,
      "Ġview": 1635,
      "Ġstate": 1636,
      "lambda": 1637,
      "Ġden": 1638,
      "Ġsomething": 1639,
      "Ġtyp": 1640,
      "Ġpower": 1641,
      "âĪ": 1642,
      "200": 1643,
      "Ġproblems": 1644,
      "met": 1645,
      "ĠQuestion": 1646,
      "Ġent": 1647,
      "Ġsample": 1648,
      "Ġsti": 1649,
      "Ġdirect": 1650,
      "34": 1651,
      "Ġstandard": 1652,
      "Ġallow": 1653,
      "king": 1654,
      "clus": 1655,
      "Ġobser": 1656,
      "ynomial": 1657,
      "partial": 1658,
      "Ġav": 1659,
      "Ġerror": 1660,
      "Ġq": 1661,
      "nal": 1662,
      "Ġet": 1663,
      "So": 1664,
      "You": 1665,
      "ĠAr": 1666,
      "Ġgood": 1667,
      "atic": 1668,
      "Ġtheorem": 1669,
      "Ġstatement": 1670,
      "velo": 1671,
      "Ġsize": 1672,
      "Ġorig": 1673,
      "Ġdepend": 1674,
      "()": 1675,
      "beta": 1676,
      "It": 1677,
      "ocument": 1678,
      "Ġdown": 1679,
      "Ġconsider": 1680,
      "Ġwhy": 1681,
      "Ġsquare": 1682,
      "ĠLet": 1683,
      "ild": 1684,
      "ĠAs": 1685,
      "Ġ)": 1686,
      "^{\\": 1687,
      "Te": 1688,
      "Ġpe": 1689,
      "ript": 1690,
      "org": 1691,
      "27": 1692,
      "ords": 1693,
      "ĠWh": 1694,
      "Ġmon": 1695,
      "ision": 1696,
      "Ġwithout": 1697,
      "Ġmag": 1698,
      "Ġsingle": 1699,
      "bin": 1700,
      "33": 1701,
      "ĠCl": 1702,
      "Ġwrit": 1703,
      "Ġ25": 1704,
      "Ġ30": 1705,
      "40": 1706,
      "Ġdescrib": 1707,
      "St": 1708,
      "ordin": 1709,
      "Ġopposite": 1710,
      "Ġdeg": 1711,
      "Ġoff": 1712,
      "Ġfinite": 1713,
      "Ġdefinition": 1714,
      "ality": 1715,
      "ER": 1716,
      "Ġdistance": 1717,
      "28": 1718,
      "Ġfre": 1719,
      "uthor": 1720,
      "ify": 1721,
      "Ġgu": 1722,
      "_{\\": 1723,
      "rol": 1724,
      "Qu": 1725,
      "100": 1726,
      "ators": 1727,
      "ided": 1728,
      "ublic": 1729,
      "Pro": 1730,
      "Ġidenti": 1731,
      "rightarrow": 1732,
      "Ġthough": 1733,
      "Ġpresent": 1734,
      "Ġgive": 1735,
      "Ġsure": 1736,
      "$$.": 1737,
      "raction": 1738,
      "alle": 1739,
      "Ġfactor": 1740,
      "where": 1741,
      "dx": 1742,
      "dfrac": 1743,
      "....": 1744,
      "ities": 1745,
      "ĠOn": 1746,
      "Ġpack": 1747,
      "ĠâĪ": 1748,
      "array": 1749,
      "tiv": 1750,
      "ulation": 1751,
      "Ġrate": 1752,
      "Ġsequence": 1753,
      "respon": 1754,
      "Ġrem": 1755,
      "Ġhad": 1756,
      "Ġwrite": 1757,
      "amma": 1758,
      "Ġelement": 1759,
      "get": 1760,
      "Ġ23": 1761,
      "ĠMay": 1762,
      "26": 1763,
      "}}{": 1764,
      "cc": 1765,
      "Ġcontinu": 1766,
      "Ġlarge": 1767,
      "Ġtotal": 1768,
      "ĠÎ": 1769,
      "ways": 1770,
      "ĠNo": 1771,
      "Ġapplic": 1772,
      "Ġthose": 1773,
      "ynam": 1774,
      "Con": 1775,
      "city": 1776,
      "'ve": 1777,
      "ead": 1778,
      "Ġexact": 1779,
      "str": 1780,
      "rel": 1781,
      "hematical": 1782,
      "ilon": 1783,
      "Ġparticular": 1784,
      "Ġoption": 1785,
      "br": 1786,
      "05": 1787,
      "self": 1788,
      "Ġradi": 1789,
      "ified": 1790,
      "Ġbook": 1791,
      "apter": 1792,
      "iversity": 1793,
      "Ġminim": 1794,
      "Ġanother": 1795,
      "Ġprop": 1796,
      "oid": 1797,
      "Ġ?": 1798,
      "Ġdoc": 1799,
      "Ġobtain": 1800,
      "cel": 1801,
      "Ġlimit": 1802,
      "Ġmight": 1803,
      "**": 1804,
      "ason": 1805,
      "Ġtimes": 1806,
      "uring": 1807,
      "tex": 1808,
      "stit": 1809,
      "etwork": 1810,
      "Ġcar": 1811,
      "{{": 1812,
      "ish": 1813,
      "Ġpolynomial": 1814,
      "gg": 1815,
      "Ġcharacter": 1816,
      "What": 1817,
      "Ġless": 1818,
      "How": 1819,
      "Ġnormal": 1820,
      "Ġknown": 1821,
      "bstract": 1822,
      "Ġhand": 1823,
      "ttp": 1824,
      "Ġstill": 1825,
      "sub": 1826,
      "matrix": 1827,
      "ond": 1828,
      "tics": 1829,
      "Ġreally": 1830,
      "leq": 1831,
      "til": 1832,
      "Ġside": 1833,
      "60": 1834,
      "Ġ100": 1835,
      "Ġinfin": 1836,
      "ixed": 1837,
      "Ġmaxim": 1838,
      "Ġsolutions": 1839,
      "ĠOr": 1840,
      "ivalen": 1841,
      "rection": 1842,
      "comm": 1843,
      "ene": 1844,
      "uc": 1845,
      "action": 1846,
      "Ġname": 1847,
      "Ġanalysis": 1848,
      "ĠJan": 1849,
      "Ġyears": 1850,
      "ĠPost": 1851,
      "ĠHowever": 1852,
      "Ġrec": 1853,
      "}}$": 1854,
      "Ġwhile": 1855,
      "Ġconstru": 1856,
      "Ġmath": 1857,
      "Ġarg": 1858,
      "Ġinclud": 1859,
      "angu": 1860,
      "Ġleft": 1861,
      "Ġ21": 1862,
      "Ġconclus": 1863,
      "Ġax": 1864,
      "Ġpage": 1865,
      "29": 1866,
      "ww": 1867,
      "Ġ24": 1868,
      "ensity": 1869,
      "pre": 1870,
      "Ġforce": 1871,
      "Ġbefore": 1872,
      "umn": 1873,
      "ublis": 1874,
      "sigma": 1875,
      "Ġleast": 1876,
      "})": 1877,
      "Ġcheck": 1878,
      "ĠMar": 1879,
      "iod": 1880,
      "gative": 1881,
      "align": 1882,
      "Ġcho": 1883,
      "Ġ22": 1884,
      "Ġelectron": 1885,
      "Ġmo": 1886,
      "ense": 1887,
      "Ġsimilar": 1888,
      "35": 1889,
      "Ġchang": 1890,
      "Ġins": 1891,
      "Ġreturn": 1892,
      "ner": 1893,
      "ĠJun": 1894,
      "Ġrule": 1895,
      "Ġatt": 1896,
      "$$,": 1897,
      "df": 1898,
      "Ġelements": 1899,
      "Ġcompa": 1900,
      "ST": 1901,
      "Ġunit": 1902,
      "Ġversion": 1903,
      "45": 1904,
      "sing": 1905,
      "anti": 1906,
      "Ġapproxim": 1907,
      "Ġangle": 1908,
      "Ġtechn": 1909,
      "Ġcorrespon": 1910,
      "Ġalways": 1911,
      "Ġeffect": 1912,
      "omorph": 1913,
      "velop": 1914,
      "ople": 1915,
      "Ġspecific": 1916,
      "Ġlit": 1917,
      "Ġcommon": 1918,
      "Ġtable": 1919,
      "antum": 1920,
      "Ġbl": 1921,
      "ailable": 1922,
      "mer": 1923,
      "ault": 1924,
      "Ġini": 1925,
      "ertain": 1926,
      "rame": 1927,
      "ĠOct": 1928,
      "Ġfigure": 1929,
      "alcul": 1930,
      "ON": 1931,
      "dd": 1932,
      "Ġeither": 1933,
      "document": 1934,
      "plement": 1935,
      "cience": 1936,
      "ĠFeb": 1937,
      "ness": 1938,
      "Ġwave": 1939,
      "wh": 1940,
      "Ġdiag": 1941,
      "Ġlast": 1942,
      "ĠĠĠ": 1943,
      "pack": 1944,
      "min": 1945,
      "Ġpred": 1946,
      "roup": 1947,
      "ately": 1948,
      "Ġsa": 1949,
      "Ġconsist": 1950,
      "vec": 1951,
      "âĢ¦": 1952,
      "ĠApp": 1953,
      "Ã©": 1954,
      "aving": 1955,
      "Ġwhe": 1956,
      "ĠÂłĠÂł": 1957,
      "come": 1958,
      "There": 1959,
      "``": 1960,
      "Ġsurface": 1961,
      "inary": 1962,
      "ga": 1963,
      "Ġago": 1964,
      "ĠLa": 1965,
      "Ġfree": 1966,
      "ription": 1967,
      "Ġinteger": 1968,
      "less": 1969,
      "Ġredu": 1970,
      "chan": 1971,
      "36": 1972,
      "Ġcoe": 1973,
      "space": 1974,
      "abel": 1975,
      "Ġpair": 1976,
      "rans": 1977,
      ".)": 1978,
      "Ġconclusions": 1979,
      "Ġdoesn": 1980,
      "AR": 1981,
      "paces": 1982,
      "32": 1983,
      "Ġconstraints": 1984,
      "}$,": 1985,
      "vious": 1986,
      "ior": 1987,
      "Ġ${\\": 1988,
      "ium": 1989,
      "Ġaround": 1990,
      "Ġwor": 1991,
      "Ġbeh": 1992,
      "Ġstudy": 1993,
      "Ġcoordin": 1994,
      "ctors": 1995,
      "Ġlink": 1996,
      "au": 1997,
      "Ġcommand": 1998,
      "onal": 1999,
      "Ġproperties": 2000,
      "}_": 2001,
      "box": 2002,
      "0000": 2003,
      "Ġdiscuss": 2004,
      "ody": 2005,
      "Ġapproach": 2006,
      "Ġstatements": 2007,
      "Ġequivalen": 2008,
      "Ġcalculate": 2009,
      "ÂłÂłÂłÂł": 2010,
      "ĠUniversity": 2011,
      "IN": 2012,
      "Ġkey": 2013,
      "ourse": 2014,
      "39": 2015,
      "ability": 2016,
      "ĠLe": 2017,
      "kes": 2018,
      "Ġcy": 2019,
      "Ġlow": 2020,
      "ournal": 2021,
      "Ġexpect": 2022,
      "Ġimage": 2023,
      "Ġpot": 2024,
      "quad": 2025,
      "ash": 2026,
      "Ġsystems": 2027,
      ")$.": 2028,
      "Ġnumer": 2029,
      "Ġsupport": 2030,
      "ĠDec": 2031,
      "man": 2032,
      "umber": 2033,
      "Ġaut": 2034,
      "(-": 2035,
      "Ġgeomet": 2036,
      "ï¿": 2037,
      "ique": 2038,
      "pendent": 2039,
      "name": 2040,
      "ĠEn": 2041,
      "Ġmodels": 2042,
      "Ġaddition": 2043,
      "ĠFind": 2044,
      "color": 2045,
      "Ġdifference": 2046,
      "TeX": 2047,
      "Ġtoo": 2048,
      "cho": 2049,
      "ï¿½": 2050,
      "rid": 2051,
      "Ġgives": 2052,
      "Ġcompon": 2053,
      "Ġdom": 2054,
      "Ġoptim": 2055,
      "}+": 2056,
      "verage": 2057,
      "Ġpeople": 2058,
      "Ġimportant": 2059,
      "jec": 2060,
      "Ġmain": 2061,
      "Ġexpression": 2062,
      "imensional": 2063,
      "ĠNew": 2064,
      "ĠAug": 2065,
      "ĠSep": 2066,
      "tle": 2067,
      "Ġhis": 2068,
      "Ġtrying": 2069,
      "oment": 2070,
      "Ġdevelop": 2071,
      "Ġlines": 2072,
      "Ġworks": 2073,
      "Ġposition": 2074,
      "SE": 2075,
      "gen": 2076,
      "elta": 2077,
      "Ġgra": 2078,
      "del": 2079,
      "oh": 2080,
      "Ġdone": 2081,
      "Ġbit": 2082,
      "yth": 2083,
      "Ġpass": 2084,
      "Ġvelo": 2085,
      "Ġagain": 2086,
      "Ġatom": 2087,
      "Ġstep": 2088,
      "bar": 2089,
      "Ġfew": 2090,
      "Ġfrequen": 2091,
      "ames": 2092,
      "MAT": 2093,
      "ateg": 2094,
      "Ġwater": 2095,
      "Ġmade": 2096,
      "ups": 2097,
      "by": 2098,
      "circ": 2099,
      "Ġcall": 2100,
      "37": 2101,
      "Ġexperim": 2102,
      "Ġbetter": 2103,
      "Ġdocument": 2104,
      "Ġreason": 2105,
      "Ġshe": 2106,
      "AL": 2107,
      "Ġavailable": 2108,
      "ouble": 2109,
      "me": 2110,
      "Ġcertain": 2111,
      "07": 2112,
      "Ġref": 2113,
      "As": 2114,
      "'re": 2115,
      "Now": 2116,
      "Ġgot": 2117,
      "omega": 2118,
      "Ġel": 2119,
      "wise": 2120,
      "Ġcontrol": 2121,
      "Ġspeed": 2122,
      "Ġtry": 2123,
      "08": 2124,
      "Ġpat": 2125,
      "Ġdesign": 2126,
      "ha": 2127,
      "mon": 2128,
      "package": 2129,
      "Ġperiod": 2130,
      "Ġwho": 2131,
      "Ġke": 2132,
      "idth": 2133,
      "ware": 2134,
      "ĠBe": 2135,
      "teg": 2136,
      "Ġloc": 2137,
      "place": 2138,
      "Ġ--": 2139,
      "let": 2140,
      "thing": 2141,
      "Ġmultiple": 2142,
      "Ġexplain": 2143,
      "Ġidea": 2144,
      "06": 2145,
      "Ġsets": 2146,
      "ĠMathematics": 2147,
      "ĠWhen": 2148,
      "Ġsource": 2149,
      "cale": 2150,
      "Delta": 2151,
      "ystem": 2152,
      "Ġcontains": 2153,
      "Al": 2154,
      "Ġseems": 2155,
      "Ġmethods": 2156,
      ")/": 2157,
      "}}\\": 2158,
      "class": 2159,
      "day": 2160,
      "Ġrange": 2161,
      "Ġnegative": 2162,
      "Ġ##": 2163,
      "Ġinitial": 2164,
      "ification": 2165,
      "ln": 2166,
      "ars": 2167,
      "Ġ${": 2168,
      "Ġshown": 2169,
      "way": 2170,
      "Ġweight": 2171,
      "38": 2172,
      "oci": 2173,
      "09": 2174,
      "ĠDo": 2175,
      "Ġcircle": 2176,
      "Ġ28": 2177,
      "Ġlangu": 2178,
      "04": 2179,
      "inally": 2180,
      "Ġadv": 2181,
      "Ġcell": 2182,
      "Ġdraw": 2183,
      "Ġwhether": 2184,
      "vir": 2185,
      "Ġ2017": 2186,
      "Ġdirection": 2187,
      "',": 2188,
      "Ġcolumn": 2189,
      "time": 2190,
      "sol": 2191,
      "ttps": 2192,
      "Ġhapp": 2193,
      "Ġexpress": 2194,
      "====": 2195,
      "ffici": 2196,
      "Ġtool": 2197,
      "Ġnetwork": 2198,
      "Ġput": 2199,
      "SS": 2200,
      "Ġsugg": 2201,
      "Ġcost": 2202,
      "Ġflow": 2203,
      "ĠPre": 2204,
      "Ġwithin": 2205,
      "Ġable": 2206,
      "Ġfar": 2207,
      "ĠRes": 2208,
      "Ġlat": 2209,
      "ental": 2210,
      "Ġask": 2211,
      "anation": 2212,
      ">>": 2213,
      "cise": 2214,
      "itle": 2215,
      "^\\": 2216,
      "Ġindic": 2217,
      "Ġhig": 2218,
      "Ġtransform": 2219,
      "rice": 2220,
      "Ġcourse": 2221,
      "}=\\": 2222,
      "Ġvelocity": 2223,
      "ĠThat": 2224,
      "co": 2225,
      "Ġvis": 2226,
      "Ġintrodu": 2227,
      "DF": 2228,
      "Ġbest": 2229,
      "Ġgoing": 2230,
      "ĠMe": 2231,
      "icts": 2232,
      "Ġimplement": 2233,
      "Ġpackage": 2234,
      "Ġ->": 2235,
      "Ġ27": 2236,
      "ering": 2237,
      "]{": 2238,
      "wn": 2239,
      "Ġcos": 2240,
      "Ġtriangle": 2241,
      "55": 2242,
      "Ġoriginal": 2243,
      "OR": 2244,
      "::": 2245,
      "Ġfour": 2246,
      "usepackage": 2247,
      "Com": 2248,
      "earch": 2249,
      "igen": 2250,
      "itor": 2251,
      "indow": 2252,
      "Ġ2018": 2253,
      "Ġmoment": 2254,
      "Ġear": 2255,
      "Ġspect": 2256,
      "Ġiss": 2257,
      "ds": 2258,
      "ĠNov": 2259,
      "Ġcreate": 2260,
      "Ġdig": 2261,
      "Ġ26": 2262,
      "ĠCont": 2263,
      "Ġdeta": 2264,
      "Ġthings": 2265,
      "pm": 2266,
      "48": 2267,
      "pri": 2268,
      "DE": 2269,
      "Ġplay": 2270,
      "Ġsepar": 2271,
      "Ġsit": 2272,
      "Ġexpon": 2273,
      "Ġdifferential": 2274,
      "Ġrot": 2275,
      "Ġbase": 2276,
      "odes": 2277,
      "lection": 2278,
      "ĠJul": 2279,
      "Ġmov": 2280,
      "lish": 2281,
      "________": 2282,
      "ready": 2283,
      "erial": 2284,
      "Ġfil": 2285,
      "Ġfiles": 2286,
      "Ġdue": 2287,
      "Ġrelated": 2288,
      "atural": 2289,
      "fo": 2290,
      "netic": 2291,
      "Ġmap": 2292,
      "Ġfeature": 2293,
      "ils": 2294,
      "ĠCalcul": 2295,
      "Ġinterval": 2296,
      "Ġparameters": 2297,
      "Post": 2298,
      "Ġproject": 2299,
      "nown": 2300,
      "ĠEqu": 2301,
      "ribut": 2302,
      "Ġhard": 2303,
      "Ġquanti": 2304,
      "urther": 2305,
      "ah": 2306,
      "02": 2307,
      "rices": 2308,
      "ĠCan": 2309,
      "Ġpers": 2310,
      "Ġdensity": 2311,
      "Ġnext": 2312,
      "Ġpotential": 2313,
      "Ġpop": 2314,
      "ĠHe": 2315,
      "epsilon": 2316,
      "47": 2317,
      "Ġspaces": 2318,
      "viron": 2319,
      "pen": 2320,
      "Ġetc": 2321,
      "ferences": 2322,
      "ype": 2323,
      "ming": 2324,
      "pective": 2325,
      "Ġactually": 2326,
      "AC": 2327,
      "Ġfam": 2328,
      "Ġcontinuous": 2329,
      "ĠSub": 2330,
      "Ġquantum": 2331,
      "Ġwritten": 2332,
      "Ġconditions": 2333,
      "alu": 2334,
      "Ġmark": 2335,
      "ological": 2336,
      "oy": 2337,
      "Se": 2338,
      ")}": 2339,
      "Ġsem": 2340,
      "Ġsever": 2341,
      "Ġappear": 2342,
      "Ġcontradicts": 2343,
      "Ġhaving": 2344,
      "Ġalready": 2345,
      "AB": 2346,
      "Ġsection": 2347,
      "plit": 2348,
      "Ġparameter": 2349,
      "big": 2350,
      "Ġvolume": 2351,
      "ĠProblem": 2352,
      "Ġinstead": 2353,
      "ement": 2354,
      "Ġworking": 2355,
      "linear": 2356,
      "Ġshort": 2357,
      "ĠApr": 2358,
      "Ġarticle": 2359,
      "Ġenc": 2360,
      "Ġsymmet": 2361,
      "tivity": 2362,
      "'ll": 2363,
      "Ġgroups": 2364,
      "ĠIm": 2365,
      "ĠPl": 2366,
      "crete": 2367,
      "Ġstatis": 2368,
      "Ġoc": 2369,
      "Ġseveral": 2370,
      "Ġratio": 2371,
      "ĠHere": 2372,
      "Ġapply": 2373,
      "\".": 2374,
      "Ġintegers": 2375,
      "Ġ2012": 2376,
      "Ġinfinite": 2377,
      "Is": 2378,
      "Ġmem": 2379,
      "Ġexamples": 2380,
      "cing": 2381,
      "Ġsl": 2382,
      "ire": 2383,
      "ractice": 2384,
      "Ġdat": 2385,
      "Ġclear": 2386,
      "Ġblock": 2387,
      "Ġmole": 2388,
      "lied": 2389,
      "Ġprovide": 2390,
      "delta": 2391,
      "ĠâĢĶ": 2392,
      "Ġlaw": 2393,
      "aces": 2394,
      "Ġexactly": 2395,
      "Ġrow": 2396,
      "Ġlocal": 2397,
      "Ġroot": 2398,
      "Ġmaximum": 2399,
      "mit": 2400,
      "44": 2401,
      "ants": 2402,
      "Ġstates": 2403,
      "def": 2404,
      "ances": 2405,
      "Ġstring": 2406,
      "lose": 2407,
      "ii": 2408,
      "rr": 2409,
      "ĠSolution": 2410,
      "Question": 2411,
      "_\\": 2412,
      "Ġsha": 2413,
      "any": 2414,
      "Ġmakes": 2415,
      "Ġ2016": 2416,
      "Ġfrequency": 2417,
      "Ġdefine": 2418,
      "Ġconcept": 2419,
      "Ġvia": 2420,
      "Ġmode": 2421,
      "edia": 2422,
      "ek": 2423,
      ")+": 2424,
      "AN": 2425,
      "rees": 2426,
      "ĠSim": 2427,
      "pper": 2428,
      "alk": 2429,
      "Ġviews": 2430,
      "jective": 2431,
      "ython": 2432,
      "astic": 2433,
      "Ġlower": 2434,
      "rack": 2435,
      "uments": 2436,
      "Ġoccur": 2437,
      "Ġevalu": 2438,
      "Â¶": 2439,
      "Ġassoci": 2440,
      "ters": 2441,
      "ĠHel": 2442,
      "Ġdem": 2443,
      "Ġplane": 2444,
      "rate": 2445,
      "Ġsuper": 2446,
      "ublished": 2447,
      "ission": 2448,
      "Here": 2449,
      "Ġ29": 2450,
      "Ġrema": 2451,
      "Ġamount": 2452,
      "Ġproperty": 2453,
      "Ġrest": 2454,
      "Ġsides": 2455,
      "Ġtypes": 2456,
      "fl": 2457,
      "Ġbo": 2458,
      "Ġmechan": 2459,
      "Ġhom": 2460,
      "Ġfraction": 2461,
      "Ġfixed": 2462,
      "Ġquad": 2463,
      "Ġderivative": 2464,
      "la": 2465,
      "eq": 2466,
      "Ġinvol": 2467,
      "ategory": 2468,
      "xy": 2469,
      "Ġsymbol": 2470,
      "56": 2471,
      "Ġdomain": 2472,
      "}-": 2473,
      "Ġtried": 2474,
      "Ġlearn": 2475,
      "Ġkind": 2476,
      "Ġalong": 2477,
      "Ġ2013": 2478,
      "Ġindependent": 2479,
      "Sh": 2480,
      "49": 2481,
      "ĠAt": 2482,
      "bs": 2483,
      "ording": 2484,
      "ĠAnal": 2485,
      "ĠAd": 2486,
      "Ġlearning": 2487,
      "IT": 2488,
      "ĠPhysics": 2489,
      "cm": 2490,
      "known": 2491,
      "net": 2492,
      "Ġoften": 2493,
      "Ġequivalent": 2494,
      "pot": 2495,
      "Ġaverage": 2496,
      "Ġcurve": 2497,
      "ital": 2498,
      "ograph": 2499,
      "file": 2500,
      "Ġrespon": 2501,
      "Ġcases": 2502,
      "ours": 2503,
      "(\"": 2504,
      "Ġ2015": 2505,
      "Ġ2019": 2506,
      "Ġplace": 2507,
      "otes": 2508,
      "%%": 2509,
      "oined": 2510,
      "03": 2511,
      "ĠNow": 2512,
      "Ġradius": 2513,
      "Ġrese": 2514,
      "Ġmaterial": 2515,
      "Ġbel": 2516,
      "Ġeasy": 2517,
      "Ġeigen": 2518,
      "ĠPM": 2519,
      "On": 2520,
      "Ġ2010": 2521,
      "Ġcount": 2522,
      "Ġconta": 2523,
      ")-": 2524,
      "Ġanaly": 2525,
      "Ġhal": 2526,
      "ĠAM": 2527,
      "Ġformat": 2528,
      "Ġplot": 2529,
      "EE": 2530,
      "bal": 2531,
      "Ġlooking": 2532,
      "Ġsto": 2533,
      ")$,": 2534,
      "esc": 2535,
      "stru": 2536,
      "Ġrele": 2537,
      "Ġ2009": 2538,
      "back": 2539,
      "Ġrecent": 2540,
      "point": 2541,
      "Ch": 2542,
      "Ġturn": 2543,
      "Ġindex": 2544,
      "57": 2545,
      "=\"": 2546,
      "gamma": 2547,
      "Ġsimply": 2548,
      "].": 2549,
      "rit": 2550,
      "ortion": 2551,
      "vari": 2552,
      "position": 2553,
      "Ġfull": 2554,
      "Wh": 2555,
      "Ġmathematics": 2556,
      "Ġimpro": 2557,
      "ont": 2558,
      "66": 2559,
      "Ġsense": 2560,
      "ood": 2561,
      "ird": 2562,
      "Ġhttp": 2563,
      "ran": 2564,
      "ĠSte": 2565,
      "Ġplease": 2566,
      "eration": 2567,
      "ags": 2568,
      ")=\\": 2569,
      "Ġthing": 2570,
      "Ġown": 2571,
      "new": 2572,
      "Ġshows": 2573,
      "onym": 2574,
      "Ġuseful": 2575,
      "med": 2576,
      "Ġcoun": 2577,
      "Ġsimpl": 2578,
      "Ġframe": 2579,
      "reak": 2580,
      "Ġnecess": 2581,
      "Ġprim": 2582,
      "atch": 2583,
      "asing": 2584,
      "Ġdetermine": 2585,
      "De": 2586,
      "Ġdegree": 2587,
      "|\\": 2588,
      "ries": 2589,
      "31": 2590,
      "ended": 2591,
      "Ġfast": 2592,
      "ldots": 2593,
      "ĠPar": 2594,
      "Ġrequired": 2595,
      "tices": 2596,
      "ED": 2597,
      "Ġwon": 2598,
      "Ġlarg": 2599,
      "Ġreference": 2600,
      "Ġ_": 2601,
      "comple": 2602,
      "Ġgreat": 2603,
      "Ġmen": 2604,
      "Note": 2605,
      "Ġtell": 2606,
      "ĠAll": 2607,
      "ope": 2608,
      "78": 2609,
      "Ġnatural": 2610,
      "Ġcorresponding": 2611,
      "idual": 2612,
      "Ġbehav": 2613,
      "dimensional": 2614,
      "58": 2615,
      "Ġperformance": 2616,
      "My": 2617,
      "Ġlot": 2618,
      "Ġbi": 2619,
      "Ġuses": 2620,
      "Ġrelative": 2621,
      "Ġcross": 2622,
      "Ġsuggest": 2623,
      "omorphism": 2624,
      "Ġbasic": 2625,
      "ensor": 2626,
      "Ġ2011": 2627,
      "ised": 2628,
      "Ġunits": 2629,
      "Ġweak": 2630,
      "Ġuser": 2631,
      "When": 2632,
      "dro": 2633,
      "Ġflu": 2634,
      "Ġplan": 2635,
      "ring": 2636,
      "ĠComput": 2637,
      "ĠInt": 2638,
      "vironment": 2639,
      "Ġ2014": 2640,
      "section": 2641,
      "Ġoperator": 2642,
      "Ġobserv": 2643,
      "Ġways": 2644,
      "Ġpres": 2645,
      "ĠEng": 2646,
      "ĠCol": 2647,
      "}^{\\": 2648,
      "Ġdoing": 2649,
      "Ġsearch": 2650,
      "Ġhigher": 2651,
      "ĠOne": 2652,
      "ieve": 2653,
      "Ġsaid": 2654,
      "46": 2655,
      "~~": 2656,
      "Ġobjects": 2657,
      "allel": 2658,
      "Ġbeg": 2659,
      "Ġenough": 2660,
      "ĠDis": 2661,
      "ection": 2662,
      "Ġwords": 2663,
      "Ġmach": 2664,
      "rite": 2665,
      "ysical": 2666,
      "SC": 2667,
      "dt": 2668,
      "mod": 2669,
      "Ġmove": 2670,
      "iled": 2671,
      "Ġlanguage": 2672,
      "Ġinclude": 2673,
      "Ġinc": 2674,
      "Ġ2020": 2675,
      "var": 2676,
      "Ġprime": 2677,
      "Ġcm": 2678,
      "Ġlittle": 2679,
      "Ġmess": 2680,
      "plicit": 2681,
      "----------------": 2682,
      "Un": 2683,
      "AM": 2684,
      "Ġday": 2685,
      "Ġdynam": 2686,
      "like": 2687,
      "Ġidentif": 2688,
      "IC": 2689,
      "ored": 2690,
      "Ġ50": 2691,
      "omin": 2692,
      "Ġmatch": 2693,
      "Ġsyn": 2694,
      "Ġcharge": 2695,
      "Ġheight": 2696,
      "bo": 2697,
      "En": 2698,
      "Ġstudents": 2699,
      "book": 2700,
      "Ġdefault": 2701,
      "rho": 2702,
      "ched": 2703,
      "ccess": 2704,
      "ĠExample": 2705,
      "ĠBy": 2706,
      "gether": 2707,
      "ĠClass": 2708,
      "Ġprice": 2709,
      "cont": 2710,
      "ĠAbstract": 2711,
      "pec": 2712,
      "Ġspecial": 2713,
      "Ġvectors": 2714,
      "sim": 2715,
      "dots": 2716,
      "''": 2717,
      "ott": 2718,
      "rangle": 2719,
      "gence": 2720,
      "date": 2721,
      "Ġ%": 2722,
      "tab": 2723,
      "iform": 2724,
      "++": 2725,
      "onymous": 2726,
      "atex": 2727,
      "rig": 2728,
      "geq": 2729,
      "}.": 2730,
      "LE": 2731,
      "vice": 2732,
      "Ar": 2733,
      "]$": 2734,
      "bf": 2735,
      "59": 2736,
      "imal": 2737,
      "Ġreaction": 2738,
      "ä¸": 2739,
      "which": 2740,
      "with": 2741,
      "istory": 2742,
      "icture": 2743,
      "ĠMy": 2744,
      "data": 2745,
      "Ġindu": 2746,
      "ï¼": 2747,
      "Ġsubset": 2748,
      "Ġdouble": 2749,
      "ĠQuestions": 2750,
      "Ġsignific": 2751,
      "ĠAnsw": 2752,
      "Ġarray": 2753,
      "Ġanswers": 2754,
      "print": 2755,
      "ze": 2756,
      "Ġconstruct": 2757,
      "Ġchanges": 2758,
      "ĠâĢĺ": 2759,
      "âĪĴ": 2760,
      "Ġcombin": 2761,
      "Right": 2762,
      "chool": 2763,
      "po": 2764,
      "Ġduring": 2765,
      "icro": 2766,
      "64": 2767,
      "Ġquite": 2768,
      "Ġprin": 2769,
      ")}{": 2770,
      "Ġselect": 2771,
      "Ġsk": 2772,
      "ĠVol": 2773,
      "comes": 2774,
      "ifold": 2775,
      "ift": 2776,
      "ency": 2777,
      "most": 2778,
      "uck": 2779,
      "istance": 2780,
      "Ġhyper": 2781,
      "ega": 2782,
      "Ġrather": 2783,
      "Ġpur": 2784,
      "ger": 2785,
      "ĠSol": 2786,
      "vant": 2787,
      "Ġrespective": 2788,
      "subset": 2789,
      "Ġtogether": 2790,
      "ĠMore": 2791,
      "Ġpri": 2792,
      "ules": 2793,
      "Either": 2794,
      "Ġmathematical": 2795,
      "âĢĶ": 2796,
      "ats": 2797,
      "ety": 2798,
      "Ne": 2799,
      "ĠAlgebra": 2800,
      "Ġcou": 2801,
      "Ġsomeone": 2802,
      "Ġinequ": 2803,
      "Ġcomment": 2804,
      "used": 2805,
      "bed": 2806,
      "defin": 2807,
      "Â°": 2808,
      "75": 2809,
      "clude": 2810,
      "anced": 2811,
      "Ġitself": 2812,
      "{(": 2813,
      "Ġattempt": 2814,
      "tage": 2815,
      "Ġrespect": 2816,
      "Ġclose": 2817,
      "Ġphot": 2818,
      "Ġsin": 2819,
      "dex": 2820,
      "Ġargument": 2821,
      "ading": 2822,
      "Cl": 2823,
      "ĠÂ·": 2824,
      "90": 2825,
      "ustom": 2826,
      "ĠThanks": 2827,
      "Ġgas": 2828,
      "llip": 2829,
      "Ġpublic": 2830,
      "Ġtopic": 2831,
      "omework": 2832,
      "my": 2833,
      "Ġprevious": 2834,
      "fficients": 2835,
      "air": 2836,
      "Ġ(\\": 2837,
      "ĠWhy": 2838,
      "mber": 2839,
      "no": 2840,
      "Ġfit": 2841,
      "Ġcoordinates": 2842,
      "ask": 2843,
      "ĠFunction": 2844,
      "oper": 2845,
      "Ġatta": 2846,
      "ensions": 2847,
      "pping": 2848,
      "Ġwhole": 2849,
      "EN": 2850,
      "88": 2851,
      "Ġquadr": 2852,
      "ĠThey": 2853,
      "ife": 2854,
      "\\;": 2855,
      "ands": 2856,
      "Ġwhose": 2857,
      "Ġgrav": 2858,
      "ĠLaTeX": 2859,
      "={": 2860,
      "do": 2861,
      "tition": 2862,
      "mega": 2863,
      "tau": 2864,
      "aves": 2865,
      "\\,": 2866,
      "Ġaxis": 2867,
      "Ġ&=": 2868,
      "zz": 2869,
      "rary": 2870,
      "reg": 2871,
      "Ġgrad": 2872,
      "Ġcompute": 2873,
      "Ġestimate": 2874,
      "plot": 2875,
      "roduction": 2876,
      "ðĿ": 2877,
      "ficult": 2878,
      "ources": 2879,
      "But": 2880,
      "ences": 2881,
      "rypt": 2882,
      "Ġperm": 2883,
      "ĠExpl": 2884,
      "Ġmiss": 2885,
      "ooth": 2886,
      "ector": 2887,
      "Ġaccess": 2888,
      "Ġlay": 2889,
      "Ġvarious": 2890,
      "Joined": 2891,
      "Ph": 2892,
      "Ġregular": 2893,
      "tig": 2894,
      "eter": 2895,
      "Ġbox": 2896,
      "Ġobtained": 2897,
      "ged": 2898,
      "Ġdimension": 2899,
      "Ġscal": 2900,
      "Ġaccel": 2901,
      "length": 2902,
      "ES": 2903,
      "hematic": 2904,
      "Ġphysics": 2905,
      "Ġparticle": 2906,
      "ĠCo": 2907,
      "ucl": 2908,
      "solute": 2909,
      "'d": 2910,
      "Ġmultiplic": 2911,
      "Ġinside": 2912,
      "Ġthought": 2913,
      "Ġenti": 2914,
      "Ġmatter": 2915,
      "42": 2916,
      "Ġcenter": 2917,
      "Ġminimum": 2918,
      "Ġold": 2919,
      "And": 2920,
      "Ġtakes": 2921,
      "ices": 2922,
      "Ġmetric": 2923,
      "oriz": 2924,
      "Ġusually": 2925,
      "Ġstra": 2926,
      "lor": 2927,
      "Ġword": 2928,
      "lobal": 2929,
      "Ġmatrices": 2930,
      "fect": 2931,
      "ĠTrans": 2932,
      "Ġbasis": 2933,
      "Ġneeded": 2934,
      "tan": 2935,
      "inear": 2936,
      "Thanks": 2937,
      "Ġcome": 2938,
      "Ġheat": 2939,
      "Ġhalf": 2940,
      "utes": 2941,
      "Ġitem": 2942,
      "AS": 2943,
      "ĠÏ": 2944,
      "Ġrelation": 2945,
      "Ġboundary": 2946,
      "Ġmotion": 2947,
      "Ġadded": 2948,
      "Ġmonth": 2949,
      "Ġdays": 2950,
      "Ġprint": 2951,
      "98": 2952,
      "Ġreport": 2953,
      "rop": 2954,
      "ĠScience": 2955,
      "Ġring": 2956,
      "ml": 2957,
      "idd": 2958,
      "ĠJournal": 2959,
      "stitute": 2960,
      "Ġworld": 2961,
      "ams": 2962,
      "Ġapplications": 2963,
      "</": 2964,
      "ĠZbl": 2965,
      "complete": 2966,
      "Ġrequire": 2967,
      "Ġphase": 2968,
      "els": 2969,
      "Ġcub": 2970,
      "Ġgame": 2971,
      "âĢī": 2972,
      "cer": 2973,
      "Ġparts": 2974,
      "Ġred": 2975,
      "Ġdiagram": 2976,
      "ceed": 2977,
      "ĠSch": 2978,
      "Ġincluding": 2979,
      "pty": 2980,
      "though": 2981,
      "Ġbig": 2982,
      "irect": 2983,
      "nu": 2984,
      "\")": 2985,
      "arget": 2986,
      "!!": 2987,
      "ĠPa": 2988,
      "ĠAss": 2989,
      "Ġprobably": 2990,
      "ĠSystem": 2991,
      "Ġapplication": 2992,
      "usion": 2993,
      "Ġfinal": 2994,
      "gan": 2995,
      "ftware": 2996,
      "Ġsays": 2997,
      "ategor": 2998,
      "Ġsetting": 2999,
      "Ġmultiply": 3000,
      "Ġauthor": 3001,
      "Ġchem": 3002,
      "umer": 3003,
      "Ġcoefficients": 3004,
      "itation": 3005,
      "Ġfields": 3006,
      "Ġenvironment": 3007,
      "Abstract": 3008,
      "cap": 3009,
      "Ġ2008": 3010,
      "www": 3011,
      "rier": 3012,
      "Ġassociated": 3013,
      "ĠUsing": 3014,
      "Rightarrow": 3015,
      "Ġisn": 3016,
      "Ġfund": 3017,
      "ĠPosted": 3018,
      "65": 3019,
      "Ġresearch": 3020,
      "Ġanonymous": 3021,
      "ĠPer": 3022,
      "ĠDif": 3023,
      "Ġgenerated": 3024,
      "ĠSer": 3025,
      "ĠAre": 3026,
      "ĠTheorem": 3027,
      "value": 3028,
      "brary": 3029,
      "Ġrational": 3030,
      "Ġpattern": 3031,
      "lex": 3032,
      "Ġinverse": 3033,
      "Ġkeep": 3034,
      "pol": 3035,
      "Ġdri": 3036,
      "Ġseen": 3037,
      "Ġbuild": 3038,
      "Find": 3039,
      "ffe": 3040,
      "Ġindiv": 3041,
      "ling": 3042,
      "Ġreview": 3043,
      "ures": 3044,
      "Ġallows": 3045,
      "Ġcontext": 3046,
      "change": 3047,
      "Ġapplied": 3048,
      "Ġlooks": 3049,
      "abor": 3050,
      "Ġelectric": 3051,
      "Ġball": 3052,
      "duct": 3053,
      "ION": 3054,
      "uthors": 3055,
      "Ġnote": 3056,
      "Ġpick": 3057,
      "Ġgeometry": 3058,
      "Ġrece": 3059,
      "Ġautom": 3060,
      "ived": 3061,
      "Ġair": 3062,
      "order": 3063,
      "Ġdx": 3064,
      "Ġfurther": 3065,
      "uration": 3066,
      "Omega": 3067,
      "ĠWith": 3068,
      "exp": 3069,
      "Ġcolor": 3070,
      "Ġexpected": 3071,
      "flow": 3072,
      "Ġthus": 3073,
      "ists": 3074,
      "Ġbuil": 3075,
      "Ġtre": 3076,
      "ĠGener": 3077,
      "Ġrect": 3078,
      "}(\\": 3079,
      "Ġinterpre": 3080,
      "Ġscore": 3081,
      "Ġorbit": 3082,
      "Ġvoltage": 3083,
      "Ġ`": 3084,
      "Ġdisplay": 3085,
      "ĠForm": 3086,
      "ĠâĢ¦": 3087,
      ")^{": 3088,
      "Ġdim": 3089,
      "Ġyet": 3090,
      "cle": 3091,
      "ĠPr": 3092,
      "Ġrespectively": 3093,
      "Ġcomb": 3094,
      "ĠChapter": 3095,
      "Ġscale": 3096,
      "IS": 3097,
      "actions": 3098,
      "idence": 3099,
      "Ġ^": 3100,
      "ĠNote": 3101,
      "ĠHelp": 3102,
      "ĠFirst": 3103,
      "{-": 3104,
      ":\\": 3105,
      "fra": 3106,
      "Posts": 3107,
      "mm": 3108,
      "ĠMathematical": 3109,
      "80": 3110,
      "ciple": 3111,
      "ij": 3112,
      "atter": 3113,
      "load": 3114,
      "By": 3115,
      "ches": 3116,
      "Ġsteps": 3117,
      "psi": 3118,
      "'(": 3119,
      "bert": 3120,
      "sp": 3121,
      "utor": 3122,
      "sm": 3123,
      "sk": 3124,
      "Ġmachine": 3125,
      "}+\\": 3126,
      "ĠSci": 3127,
      "mail": 3128,
      "Ġalgebraic": 3129,
      "Ġunique": 3130,
      "Ġschem": 3131,
      "Ġdescribed": 3132,
      "Ġcomponents": 3133,
      "ĠInteg": 3134,
      "Ġcommun": 3135,
      "/(": 3136,
      "Ġacross": 3137,
      "map": 3138,
      "II": 3139,
      "ĠGa": 3140,
      "Ġregion": 3141,
      "active": 3142,
      "Ġempty": 3143,
      "Ġprovided": 3144,
      "Ġparallel": 3145,
      "Ġsignificant": 3146,
      "43": 3147,
      "ili": 3148,
      "Ġpercent": 3149,
      "conom": 3150,
      "RE": 3151,
      "escription": 3152,
      "Ġarbit": 3153,
      "Ġhowever": 3154,
      "Ġdirectly": 3155,
      "itude": 3156,
      "Ġinstall": 3157,
      "Ġtw": 3158,
      "Ġnear": 3159,
      "ĠThus": 3160,
      "indows": 3161,
      "No": 3162,
      "ML": 3163,
      "Ġnever": 3164,
      "95": 3165,
      "iles": 3166,
      "77": 3167,
      "Ġmed": 3168,
      "=-": 3169,
      "Ġgrow": 3170,
      "Ġissue": 3171,
      "Ġbody": 3172,
      "opy": 3173,
      "Ġnorm": 3174,
      "ĠModel": 3175,
      "Ġsite": 3176,
      "Mat": 3177,
      "pling": 3178,
      "Ġmaking": 3179,
      "ends": 3180,
      "Last": 3181,
      "Ġguess": 3182,
      "Ġ;": 3183,
      "sec": 3184,
      "Ġsqua": 3185,
      "function": 3186,
      "Ġdifferenti": 3187,
      "Ġcomputer": 3188,
      "Ġcard": 3189,
      "Ġassign": 3190,
      "Ġgetting": 3191,
      "Ġadj": 3192,
      "bon": 3193,
      "tically": 3194,
      "ĠMa": 3195,
      "]]": 3196,
      "ĠTheory": 3197,
      "*}": 3198,
      "Ġmagnetic": 3199,
      "Ġcorrel": 3200,
      "Ġgreater": 3201,
      "Math": 3202,
      "idered": 3203,
      "Ġ31": 3204,
      "Ġedit": 3205,
      "eng": 3206,
      "Ġnotation": 3207,
      "orizon": 3208,
      "iding": 3209,
      "Ġuniform": 3210,
      "Ġevent": 3211,
      "Ġtree": 3212,
      "Ġregression": 3213,
      "na": 3214,
      "defined": 3215,
      "pose": 3216,
      "pers": 3217,
      "ticles": 3218,
      "lling": 3219,
      "ilib": 3220,
      "Ġcharacteristic": 3221,
      "Ġbinary": 3222,
      "hing": 3223,
      "Ġellip": 3224,
      "Ġcontent": 3225,
      "Ġanything": 3226,
      "Ġfactors": 3227,
      "Ġrepresentation": 3228,
      "96": 3229,
      "Ġbreak": 3230,
      "rum": 3231,
      "Ġelse": 3232,
      "atives": 3233,
      "Ġdel": 3234,
      "[\\": 3235,
      "Ġodd": 3236,
      "ĠPol": 3237,
      "41": 3238,
      "Ġbegin": 3239,
      "Ġinstance": 3240,
      "Ġconsidered": 3241,
      "Ġ\\,": 3242,
      "allen": 3243,
      "type": 3244,
      "Ġdecre": 3245,
      "Ġcategory": 3246,
      "Ġscript": 3247,
      "uation": 3248,
      "ses": 3249,
      "rue": 3250,
      "dy": 3251,
      "Ġ60": 3252,
      "Ġmention": 3253,
      "ĠUse": 3254,
      "Ġanyone": 3255,
      "Ġmagn": 3256,
      "97": 3257,
      "ilities": 3258,
      "vex": 3259,
      "eterm": 3260,
      "Ġ40": 3261,
      "aim": 3262,
      "Ġsort": 3263,
      "Ġangles": 3264,
      "ĠâĪĴ": 3265,
      "tri": 3266,
      "Ġinteresting": 3267,
      "uff": 3268,
      "ĠCar": 3269,
      "max": 3270,
      "Ġalgorithms": 3271,
      "Ġcapa": 3272,
      "Ġla": 3273,
      "ilibri": 3274,
      "First": 3275,
      "ĠGMAT": 3276,
      ".$": 3277,
      "ĠÂ»": 3278,
      "group": 3279,
      "rote": 3280,
      "Ġ###": 3281,
      "edu": 3282,
      "Then": 3283,
      "Ġindividual": 3284,
      "using": 3285,
      "wards": 3286,
      "ĠSome": 3287,
      "ĠEar": 3288,
      "reci": 3289,
      "ĠâĢ¢": 3290,
      "ream": 3291,
      "from": 3292,
      "Ġaltern": 3293,
      "izing": 3294,
      "oot": 3295,
      "lope": 3296,
      "Ġshape": 3297,
      "ympt": 3298,
      "}}{\\": 3299,
      "inder": 3300,
      "Ġsubject": 3301,
      "overline": 3302,
      "cript": 3303,
      "yl": 3304,
      "ina": 3305,
      "inter": 3306,
      "Ġflo": 3307,
      "OM": 3308,
      "OT": 3309,
      "Ġfun": 3310,
      "ĠLi": 3311,
      "Ġach": 3312,
      "ids": 3313,
      "Ġprovides": 3314,
      "Ġexperiment": 3315,
      "words": 3316,
      "Ġ2021": 3317,
      "Ġnuc": 3318,
      "Ġdenomin": 3319,
      "ameter": 3320,
      "quences": 3321,
      "Ġpractice": 3322,
      "Ġcompar": 3323,
      "ĠShow": 3324,
      "Ġhttps": 3325,
      "Ġincrease": 3326,
      "amp": 3327,
      "finition": 3328,
      "ĠSee": 3329,
      "vent": 3330,
      "->": 3331,
      "http": 3332,
      "arily": 3333,
      "ĠPython": 3334,
      "Ġsolving": 3335,
      "ï¿½ï¿½": 3336,
      "Ġabsolute": 3337,
      "isk": 3338,
      "Ġhydro": 3339,
      "LL": 3340,
      "xx": 3341,
      "Ġcomponent": 3342,
      "Ġrepe": 3343,
      "Ġaccept": 3344,
      "Ġchoose": 3345,
      "Ġvertices": 3346,
      "che": 3347,
      "ibility": 3348,
      "Ġgraphs": 3349,
      "fit": 3350,
      "Ġhead": 3351,
      "Ġclasses": 3352,
      "Ġbounded": 3353,
      "vert": 3354,
      "Ġfeatures": 3355,
      "Ġmolec": 3356,
      "ava": 3357,
      "Ġcreated": 3358,
      "Ġweek": 3359,
      "ground": 3360,
      "Ġonline": 3361,
      "Ġcoefficient": 3362,
      "Ġload": 3363,
      "ĠIntroduction": 3364,
      "Ġ~": 3365,
      "cdots": 3366,
      "Ġincomplete": 3367,
      "PS": 3368,
      "Ġparticles": 3369,
      "Ġcompact": 3370,
      "Ġentire": 3371,
      "Ġgoes": 3372,
      "ideo": 3373,
      "Ġpartial": 3374,
      "Ġ<-": 3375,
      "Since": 3376,
      "Ġupper": 3377,
      "Be": 3378,
      "Do": 3379,
      "Ġloss": 3380,
      "Ġstraight": 3381,
      "ĨĴ": 3382,
      "ĠNumber": 3383,
      "Ġneeds": 3384,
      "Ġvertex": 3385,
      "Sub": 3386,
      "side": 3387,
      "Ġtaking": 3388,
      "Ġsmooth": 3389,
      "ĠÃĹ": 3390,
      "ĠMember": 3391,
      "Ġconfig": 3392,
      "]:": 3393,
      "ms": 3394,
      "artment": 3395,
      "Ġquadratic": 3396,
      "Ġthird": 3397,
      "Ġcomes": 3398,
      "Ġpie": 3399,
      "ĠMark": 3400,
      "ĠStatis": 3401,
      "ump": 3402,
      "jor": 3403,
      "ID": 3404,
      "ĠPDF": 3405,
      "aced": 3406,
      "=(": 3407,
      "rang": 3408,
      "af": 3409,
      "Ġsumm": 3410,
      "pdf": 3411,
      "Ġpopulation": 3412,
      "BC": 3413,
      "Ġgl": 3414,
      "Ġoperators": 3415,
      "ination": 3416,
      "Ġonce": 3417,
      "Ġedited": 3418,
      "][": 3419,
      "mission": 3420,
      "ledge": 3421,
      "Ġpoly": 3422,
      "Ġ==": 3423,
      "ĠData": 3424,
      "Ġfinding": 3425,
      "Ġ!": 3426,
      "Ġhypot": 3427,
      "ĠRel": 3428,
      "ributed": 3429,
      "Ġlater": 3430,
      "Ġappreci": 3431,
      "ercise": 3432,
      "Ġlabel": 3433,
      "sis": 3434,
      "istry": 3435,
      "Ġcurrently": 3436,
      "53": 3437,
      "nd": 3438,
      "68": 3439,
      "Ġcontaining": 3440,
      "67": 3441,
      "Ġproportion": 3442,
      "ĠMulti": 3443,
      "Ġlarger": 3444,
      "ET": 3445,
      "ises": 3446,
      "Ġneut": 3447,
      "cs": 3448,
      "ĠPlease": 3449,
      "ĠAnalysis": 3450,
      "ohn": 3451,
      "Ġmomentum": 3452,
      ")]": 3453,
      "Ġyield": 3454,
      "54": 3455,
      "??": 3456,
      "Ġunderstanding": 3457,
      "52": 3458,
      "51": 3459,
      "Ġhours": 3460,
      "ometric": 3461,
      "medi": 3462,
      "ilibrium": 3463,
      "ottom": 3464,
      "iving": 3465,
      "ansion": 3466,
      "Ġidentity": 3467,
      "nt": 3468,
      "Ġcalculated": 3469,
      "year": 3470,
      "Par": 3471,
      "ractions": 3472,
      "Ġeasily": 3473,
      "iff": 3474,
      "Hi": 3475,
      "Ġtherefore": 3476,
      "}[": 3477,
      "operator": 3478,
      "Ġbond": 3479,
      "amental": 3480,
      "que": 3481,
      "see": 3482,
      "ussian": 3483,
      "Ġconsistent": 3484,
      "ĠAny": 3485,
      "Ġtaken": 3486,
      "Ġ}{": 3487,
      "Ġtherm": 3488,
      "Ġbecomes": 3489,
      "viously": 3490,
      "Ġnecessary": 3491,
      "Ġwrote": 3492,
      "CH": 3493,
      "Ġsmaller": 3494,
      "Ġsuccess": 3495,
      "Ġregard": 3496,
      "Ġdetails": 3497,
      "sym": 3498,
      "Ġsend": 3499,
      "Ġedge": 3500,
      "Solution": 3501,
      "mid": 3502,
      "oted": 3503,
      "iki": 3504,
      "Ġdegrees": 3505,
      "Ġquick": 3506,
      "langle": 3507,
      "top": 3508,
      "ĠStud": 3509,
      "ikip": 3510,
      "UT": 3511,
      "bmatrix": 3512,
      "Ġseg": 3513,
      "Ġdifficult": 3514,
      "Ġintegration": 3515,
      "Ġmanifold": 3516,
      "Ġapproximation": 3517,
      "resents": 3518,
      "Ġasked": 3519,
      "Ġfoc": 3520,
      "Example": 3521,
      "ĠGroup": 3522,
      "Ġstarting": 3523,
      "Ġwidth": 3524,
      "Ġ(-": 3525,
      "ikipedia": 3526,
      "aries": 3527,
      "pact": 3528,
      "Ġpret": 3529,
      "Ġdatas": 3530,
      "rain": 3531,
      "ĠMon": 3532,
      "Ġ2007": 3533,
      "Can": 3534,
      "ience": 3535,
      "ithme": 3536,
      "Ġdescribe": 3537,
      "width": 3538,
      "ariz": 3539,
      "Ġconne": 3540,
      "iques": 3541,
      "por": 3542,
      "Ġpicture": 3543,
      "ste": 3544,
      "Ġhorizon": 3545,
      "Ġdiver": 3546,
      "Ġeffects": 3547,
      "based": 3548,
      "Ġideal": 3549,
      "down": 3550,
      "^*": 3551,
      "ired": 3552,
      "ouse": 3553,
      "rical": 3554,
      "Ġill": 3555,
      "ĠSet": 3556,
      "ĠOb": 3557,
      "Ġinves": 3558,
      "ale": 3559,
      "Ġclos": 3560,
      "aily": 3561,
      "Ġperfect": 3562,
      "Pl": 3563,
      "Ġinequality": 3564,
      "Ġdevi": 3565,
      "Ġproduce": 3566,
      "AG": 3567,
      "Ġrev": 3568,
      "Ġones": 3569,
      "Ġphysical": 3570,
      "sor": 3571,
      "ĠMan": 3572,
      "ĠText": 3573,
      "Ġ$$(": 3574,
      "jection": 3575,
      "Ġmeasured": 3576,
      "Ġhum": 3577,
      "Ġord": 3578,
      "Ġself": 3579,
      "Ġuntil": 3580,
      "Ġdiff": 3581,
      "Ġaccount": 3582,
      "Ġoperations": 3583,
      "Ġreading": 3584,
      "test": 3585,
      "ler": 3586,
      "Ġchapter": 3587,
      "Ġinvestig": 3588,
      "Ġcare": 3589,
      "Ġrepresents": 3590,
      "graph": 3591,
      "Ġmoving": 3592,
      "ables": 3593,
      "Ġfail": 3594,
      "Ġprinciple": 3595,
      "\\{": 3596,
      "Ġalmost": 3597,
      "hence": 3598,
      "Ġsoftware": 3599,
      "ĠAb": 3600,
      "dered": 3601,
      "Ġdescription": 3602,
      "Ġadditional": 3603,
      "Ġgenerate": 3604,
      "Ġdidn": 3605,
      "Ġsimul": 3606,
      "ffective": 3607,
      "uture": 3608,
      "ĠOrig": 3609,
      "Ġimag": 3610,
      "pring": 3611,
      "Im": 3612,
      "Ġspecified": 3613,
      "hood": 3614,
      "Ġperson": 3615,
      "ĠAnswer": 3616,
      "https": 3617,
      "Ġreturns": 3618,
      "Ġchain": 3619,
      "cular": 3620,
      "ritical": 3621,
      "Ġaction": 3622,
      "CT": 3623,
      "Ġsci": 3624,
      "ĠReg": 3625,
      "Ġtalk": 3626,
      "axis": 3627,
      "Ste": 3628,
      "Ġpi": 3629,
      "Ġtrig": 3630,
      "Ġrules": 3631,
      "ĠCor": 3632,
      "ĠUS": 3633,
      "Ġaccording": 3634,
      "ls": 3635,
      "Ġdiscrete": 3636,
      "Ġoptions": 3637,
      "Ġtarget": 3638,
      "Sol": 3639,
      "Ġnumerical": 3640,
      "Ġelectrons": 3641,
      "ging": 3642,
      "values": 3643,
      "Ġnice": 3644,
      "Ġinterested": 3645,
      "Ġbehavior": 3646,
      "Ġcap": 3647,
      "Ġexplicit": 3648,
      "Ġoperation": 3649,
      "Ġbal": 3650,
      "arks": 3651,
      "ĠTop": 3652,
      "$?": 3653,
      "Ġresponse": 3654,
      "ino": 3655,
      "oti": 3656,
      "Ġloop": 3657,
      "aches": 3658,
      "Ġexec": 3659,
      "omorphic": 3660,
      "Ġmissing": 3661,
      "uzz": 3662,
      "ories": 3663,
      "Ġ\\;": 3664,
      "ĠInter": 3665,
      "pped": 3666,
      "Ġconcent": 3667,
      "Ġcover": 3668,
      "Ġ\\{": 3669,
      "Ġtang": 3670,
      "Ġfore": 3671,
      "Ġorgan": 3672,
      "Ġroots": 3673,
      "Ġtriang": 3674,
      "ĠGe": 3675,
      "Ġpp": 3676,
      "ising": 3677,
      "entially": 3678,
      "ternal": 3679,
      "Ġhappen": 3680,
      "}\\\\": 3681,
      "One": 3682,
      "ht": 3683,
      "xi": 3684,
      "Ġimprove": 3685,
      "user": 3686,
      "Ġsymmetric": 3687,
      "IM": 3688,
      "psilon": 3689,
      "documentclass": 3690,
      "ĠEarth": 3691,
      "ĠDep": 3692,
      "Ġlogic": 3693,
      "ithmetic": 3694,
      "Ġothers": 3695,
      "Ġprogramming": 3696,
      "Ġess": 3697,
      "ourier": 3698,
      "Ġminutes": 3699,
      "Ġstarted": 3700,
      "At": 3701,
      "Ġrequires": 3702,
      "Ġblack": 3703,
      "more": 3704,
      "ļĦ": 3705,
      "ĠCa": 3706,
      "Ġclassical": 3707,
      "Ġtransl": 3708,
      "Ġscience": 3709,
      "utput": 3710,
      "stitution": 3711,
      "sion": 3712,
      "Ġfilter": 3713,
      "')": 3714,
      "cro": 3715,
      "iti": 3716,
      "Ġcollis": 3717,
      "}}$$": 3718,
      "Ġtransition": 3719,
      "AP": 3720,
      "çļĦ": 3721,
      "Ġconven": 3722,
      "Ġexam": 3723,
      "Ġobserved": 3724,
      "lying": 3725,
      "Ġpairs": 3726,
      "rror": 3727,
      "ĠÃ": 3728,
      "Ġpay": 3729,
      "ĠElect": 3730,
      "ĠĠĠĠĠĠĠĠĠĠĠĠĠĠĠĠ": 3731,
      "Sim": 3732,
      "Ġmeaning": 3733,
      "Ġarbitrary": 3734,
      "('": 3735,
      "Ġdep": 3736,
      "haps": 3737,
      "ert": 3738,
      "omen": 3739,
      "Ġlife": 3740,
      "From": 3741,
      "ĠMod": 3742,
      "Ġdenominator": 3743,
      "equiv": 3744,
      "Ġamong": 3745,
      "ãģ": 3746,
      "ĠOpen": 3747,
      "prime": 3748,
      "({": 3749,
      "alue": 3750,
      "Ġpretty": 3751,
      "Ġmessage": 3752,
      "az": 3753,
      "but": 3754,
      "gn": 3755,
      "ounds": 3756,
      "utorial": 3757,
      "Ġdemon": 3758,
      "ĠGu": 3759,
      "Ġconvergence": 3760,
      "ĠPo": 3761,
      "ĠWork": 3762,
      "Ġcut": 3763,
      "Ġwriting": 3764,
      "70": 3765,
      "Ġclaim": 3766,
      "========": 3767,
      "OS": 3768,
      "ativ": 3769,
      "Ġforms": 3770,
      "Ġdepends": 3771,
      "ips": 3772,
      "valu": 3773,
      "Ġexponential": 3774,
      "Ġacceleration": 3775,
      "Ġslope": 3776,
      "Pr": 3777,
      "$)": 3778,
      "ĠFree": 3779,
      "Ġsubt": 3780,
      "light": 3781,
      "ãĢ": 3782,
      "Ġappropri": 3783,
      "ĠEd": 3784,
      "ush": 3785,
      "off": 3786,
      "esian": 3787,
      "izes": 3788,
      "ĠAmer": 3789,
      "Ġmodul": 3790,
      "body": 3791,
      "Eng": 3792,
      "ster": 3793,
      "Ġusers": 3794,
      "ĠGeomet": 3795,
      "];": 3796,
      "Ġdimensions": 3797,
      "faces": 3798,
      "hom": 3799,
      "Ġglobal": 3800,
      "urb": 3801,
      "actor": 3802,
      "Ġinvari": 3803,
      "Ġcoordinate": 3804,
      "Ġ//": 3805,
      "oll": 3806,
      "Ġdivis": 3807,
      "ĠSc": 3808,
      "osp": 3809,
      "bb": 3810,
      "Ġwonder": 3811,
      "osition": 3812,
      "Ġactual": 3813,
      "Ġorigin": 3814,
      "Ġdeal": 3815,
      "ĠThank": 3816,
      "Ġatoms": 3817,
      "Ġhence": 3818,
      "ortun": 3819,
      "Ġnames": 3820,
      "size": 3821,
      "ĠEach": 3822,
      "ogn": 3823,
      "Ġgeometric": 3824,
      "Cons": 3825,
      "****": 3826,
      "ography": 3827,
      "ula": 3828,
      ")?": 3829,
      "article": 3830,
      "Ġclick": 3831,
      "ĠEquations": 3832,
      "Ġ_{": 3833,
      "Ġincreasing": 3834,
      "89": 3835,
      "$$-": 3836,
      "Ġefficient": 3837,
      "ĠMethod": 3838,
      "ĠPosts": 3839,
      "CD": 3840,
      "include": 3841,
      "Ã¶": 3842,
      "Ġgen": 3843,
      "iem": 3844,
      "76": 3845,
      "Ġvertical": 3846,
      "stack": 3847,
      "ĠGo": 3848,
      "ropy": 3849,
      "import": 3850,
      "Ġintegr": 3851,
      "ison": 3852,
      "cip": 3853,
      "ĠBo": 3854,
      "istor": 3855,
      "Ġpolynomials": 3856,
      "ious": 3857,
      "son": 3858,
      "Ġcustom": 3859,
      "ĠTest": 3860,
      "Ġspin": 3861,
      "Ġsphere": 3862,
      "86": 3863,
      "Ġextension": 3864,
      "Ġfundamental": 3865,
      "Ġfr": 3866,
      "ĠLear": 3867,
      "Ġpast": 3868,
      "gl": 3869,
      "Ġclust": 3870,
      "Ġ35": 3871,
      "gs": 3872,
      "ĠCur": 3873,
      "Ġ($": 3874,
      "Ġdistin": 3875,
      "Ġâī": 3876,
      "Ġeasier": 3877,
      "Ġmicro": 3878,
      "Ġ32": 3879,
      "Ġaway": 3880,
      "list": 3881,
      "amer": 3882,
      "ref": 3883,
      "})$": 3884,
      "Ġir": 3885,
      "Ġbro": 3886,
      "ĠDi": 3887,
      ".\"": 3888,
      "Ġasympt": 3889,
      "Ġsent": 3890,
      "return": 3891,
      "Ġdecimal": 3892,
      "enc": 3893,
      "cially": 3894,
      "Ġequilibrium": 3895,
      "Ġsufficient": 3896,
      "Ġcompletely": 3897,
      "Ġfamily": 3898,
      "ites": 3899,
      "ĠRo": 3900,
      "])": 3901,
      "Ġimp": 3902,
      "Ġconvex": 3903,
      "sel": 3904,
      "word": 3905,
      "Ġexpansion": 3906,
      ",-": 3907,
      "Ġrefer": 3908,
      "Ġdoi": 3909,
      "Ġimages": 3910,
      "Ġslow": 3911,
      "Or": 3912,
      "atory": 3913,
      "Ġacid": 3914,
      "allenge": 3915,
      "######": 3916,
      "Ġcalculator": 3917,
      "tions": 3918,
      "Ġtitle": 3919,
      "Ġvariance": 3920,
      "cup": 3921,
      "uro": 3922,
      "title": 3923,
      "Ġstructures": 3924,
      "Ġfuture": 3925,
      "ĠOf": 3926,
      ")}$": 3927,
      "Ġrecomm": 3928,
      "ĠComm": 3929,
      "ably": 3930,
      "Ġcalculation": 3931,
      "Ġproduction": 3932,
      "Ġoptimal": 3933,
      "ĠNot": 3934,
      "Ġlibrary": 3935,
      "ĠTim": 3936,
      "ĠMo": 3937,
      "ploy": 3938,
      "Ġcentral": 3939,
      ".$$": 3940,
      "otal": 3941,
      "comp": 3942,
      "Ġ90": 3943,
      "ä»": 3944,
      "rag": 3945,
      "Ġann": 3946,
      "Ġprecise": 3947,
      "flo": 3948,
      "Ġsens": 3949,
      "Ġsamples": 3950,
      "Ġeffective": 3951,
      "Ġerrors": 3952,
      "ĠLinear": 3953,
      "tax": 3954,
      "Ġwide": 3955,
      "Ġchoice": 3956,
      "Ġtransformation": 3957,
      "Ġcouple": 3958,
      "RO": 3959,
      "ĠTitle": 3960,
      "oding": 3961,
      "Ġknowledge": 3962,
      "Ġcomplexity": 3963,
      "Ġmultiplication": 3964,
      "ĠAN": 3965,
      "Ġrank": 3966,
      "Ġround": 3967,
      "Ġadding": 3968,
      "ategories": 3969,
      "arithm": 3970,
      "large": 3971,
      "Ġbecome": 3972,
      "neq": 3973,
      "Ġcopy": 3974,
      "All": 3975,
      "Ġnodes": 3976,
      "ĠLevel": 3977,
      "Ġbar": 3978,
      "Ġlikely": 3979,
      "Ġthinking": 3980,
      "ĠWhich": 3981,
      "\\}$": 3982,
      "what": 3983,
      "Ġprocesses": 3984,
      "Ġmeasurement": 3985,
      "taff": 3986,
      "Ġconc": 3987,
      "Ġdigits": 3988,
      "Ġmemory": 3989,
      "sive": 3990,
      "ĠFe": 3991,
      "Ġmaps": 3992,
      "ello": 3993,
      "Ġproced": 3994,
      "cher": 3995,
      "how": 3996,
      "Ġinfl": 3997,
      "oney": 3998,
      "ĠStep": 3999,
      "Ġ-\\": 4000,
      "Ġproducts": 4001,
      "Ġquantity": 4002,
      "Ġhappens": 4003,
      "âĢĭ": 4004,
      "||": 4005,
      "varphi": 4006,
      "Ġprediction": 4007,
      "rable": 4008,
      "Ġeverything": 4009,
      "Ġconvert": 4010,
      "label": 4011,
      "((": 4012,
      "87": 4013,
      "Le": 4014,
      "overed": 4015,
      "ĠDoes": 4016,
      "Ġmagnitude": 4017,
      "ĠAfter": 4018,
      "ĠLo": 4019,
      "Ġaddress": 4020,
      "Ġappropriate": 4021,
      "Ġbottom": 4022,
      "Ġchemical": 4023,
      "iemann": 4024,
      "Ġhorizontal": 4025,
      "Ed": 4026,
      "Type": 4027,
      "93": 4028,
      "ĠAm": 4029,
      "operatorname": 4030,
      "ĠRep": 4031,
      "Res": 4032,
      "otic": 4033,
      "Ġaffect": 4034,
      "Ġcurves": 4035,
      "ÂłÂłÂłÂłÂłÂłÂłÂł": 4036,
      "Ġmajor": 4037,
      "Consider": 4038,
      "mic": 4039,
      "ĠInd": 4040,
      "Ġevents": 4041,
      "Ġextra": 4042,
      "gress": 4043,
      "part": 4044,
      "alth": 4045,
      "Ġmill": 4046,
      "Ġnonlinear": 4047,
      "Ġlimits": 4048,
      "Ġher": 4049,
      "scill": 4050,
      "zero": 4051,
      "ĠTwo": 4052,
      "ĠLog": 4053,
      "Gamma": 4054,
      "fully": 4055,
      "ĠGeneral": 4056,
      "nab": 4057,
      "ather": 4058,
      "ĠOur": 4059,
      "atically": 4060,
      "ifying": 4061,
      "Ġpages": 4062,
      "uler": 4063,
      "ernel": 4064,
      "uly": 4065,
      "quent": 4066,
      "94": 4067,
      "Ġgrid": 4068,
      "FT": 4069,
      "Ġreplace": 4070,
      "Ġ:=": 4071,
      "Ġcorrectly": 4072,
      "Ġexplanation": 4073,
      "That": 4074,
      "kz": 4075,
      "Ġgenerally": 4076,
      "orry": 4077,
      "Ġorth": 4078,
      "Ġ2006": 4079,
      "Ġrecur": 4080,
      "Ġformal": 4081,
      "Ġbelieve": 4082,
      "${\\": 4083,
      "Ġdate": 4084,
      "Ġedges": 4085,
      "Ġliter": 4086,
      "Ġscalar": 4087,
      "Ġ]": 4088,
      "Ġinterpret": 4089,
      "Ġtask": 4090,
      "Ġdu": 4091,
      "ris": 4092,
      "appro": 4093,
      "land": 4094,
      "quare": 4095,
      "Ġiter": 4096,
      "this": 4097,
      "Ġ$-": 4098,
      "HE": 4099,
      "Ġscheme": 4100,
      "85": 4101,
      "Ġtensor": 4102,
      "Ġextre": 4103,
      "Ġinternal": 4104,
      "Ġdivided": 4105,
      "vare": 4106,
      "Ġsplit": 4107,
      "ighb": 4108,
      "ogene": 4109,
      "Ġremov": 4110,
      "Ġrepresented": 4111,
      "Ġcalculus": 4112,
      "ĠExplanation": 4113,
      ",$": 4114,
      "orrect": 4115,
      "script": 4116,
      "Ġmeasures": 4117,
      "plex": 4118,
      "valid": 4119,
      "Data": 4120,
      "sl": 4121,
      "}]": 4122,
      "ĠNon": 4123,
      "mal": 4124,
      "Ġresulting": 4125,
      "ĠâĨĴ": 4126,
      "PI": 4127,
      "ĠHistory": 4128,
      "Ġformulas": 4129,
      "Ġagainst": 4130,
      "Ġvisual": 4131,
      "Ġtechniques": 4132,
      "oo": 4133,
      "oretical": 4134,
      "ĠFourier": 4135,
      "uses": 4136,
      "Ġdemonstr": 4137,
      "^-": 4138,
      "Ġren": 4139,
      "ĠAc": 4140,
      "Ġweb": 4141,
      "cast": 4142,
      "Ġcolumns": 4143,
      "CO": 4144,
      "SO": 4145,
      "ogle": 4146,
      "}$$.": 4147,
      "Ġproposed": 4148,
      "ĠPower": 4149,
      "ĠTechn": 4150,
      "ĠApplic": 4151,
      "ception": 4152,
      "ferential": 4153,
      "ĠIN": 4154,
      "Ġ}$": 4155,
      "item": 4156,
      "Ġdiagonal": 4157,
      "Ġhypothes": 4158,
      "Ġgets": 4159,
      "ĠKey": 4160,
      "Ġ36": 4161,
      "yp": 4162,
      "Ġsequences": 4163,
      "Ġreleased": 4164,
      "ai": 4165,
      "older": 4166,
      "Ġshare": 4167,
      "Ġembed": 4168,
      "Ġpredict": 4169,
      "Ġconstruction": 4170,
      "vices": 4171,
      "Ġscre": 4172,
      "ĠAmeric": 4173,
      "inomial": 4174,
      "ĠPage": 4175,
      "Ġdevelopment": 4176,
      "nabla": 4177,
      "ĠWindows": 4178,
      "Cont": 4179,
      "Ġ$[": 4180,
      "inant": 4181,
      "Ġyes": 4182,
      "lib": 4183,
      "UE": 4184,
      "ĠCre": 4185,
      "forall": 4186,
      "Ġtransfer": 4187,
      "Ġtopology": 4188,
      "ĠOriginally": 4189,
      "101": 4190,
      "agnetic": 4191,
      "XX": 4192,
      "However": 4193,
      "ĠSearch": 4194,
      "num": 4195,
      "Ġtor": 4196,
      "Ġful": 4197,
      "Ġblog": 4198,
      "sem": 4199,
      "Ġsimulation": 4200,
      "Ġsolved": 4201,
      "ĠÂłĠÂłĠÂłĠÂł": 4202,
      "$(": 4203,
      "Ġnoise": 4204,
      "Ġthanks": 4205,
      "Ġangular": 4206,
      "Ġnothing": 4207,
      "ĠIntern": 4208,
      "ï¼Į": 4209,
      "ampling": 4210,
      "Ġ2005": 4211,
      "uary": 4212,
      "Ġexistence": 4213,
      "Ġdivide": 4214,
      "Ġdeveloped": 4215,
      "Ġappears": 4216,
      "Ġ00": 4217,
      "pecially": 4218,
      "Ġfeel": 4219,
      "ered": 4220,
      "English": 4221,
      "avid": 4222,
      "Ġfine": 4223,
      "${": 4224,
      "Full": 4225,
      "ns": 4226,
      "Ġhope": 4227,
      "racy": 4228,
      "Ġfix": 4229,
      "Ġfractions": 4230,
      "denti": 4231,
      "stable": 4232,
      "Ġsites": 4233,
      "ĠOther": 4234,
      "command": 4235,
      "textcolor": 4236,
      "riter": 4237,
      "Set": 4238,
      "Ġrotation": 4239,
      "Ġeconom": 4240,
      "Ġge": 4241,
      "Any": 4242,
      "US": 4243,
      "Ġupd": 4244,
      "ĠCons": 4245,
      "Ġdecay": 4246,
      "finite": 4247,
      "phant": 4248,
      "Ġhar": 4249,
      "Ġion": 4250,
      "Ġtests": 4251,
      "Ġconsists": 4252,
      "orth": 4253,
      "Ġgravity": 4254,
      "Ġanti": 4255,
      "Ġtangent": 4256,
      "range": 4257,
      "quest": 4258,
      "ending": 4259,
      "/\\": 4260,
      "esh": 4261,
      "limits": 4262,
      "Ġsquares": 4263,
      "Ġmeasurements": 4264,
      "roups": 4265,
      "Ġdetect": 4266,
      "Ġplug": 4267,
      "Ġfunctional": 4268,
      "ĠĠĠĠĠ": 4269,
      "Ġdeviation": 4270,
      "rd": 4271,
      "roll": 4272,
      "Ġmind": 4273,
      "ĠStatistics": 4274,
      "Ġdirectory": 4275,
      "ĠDaily": 4276,
      "Ġmodule": 4277,
      "Ġtraining": 4278,
      "UR": 4279,
      "mark": 4280,
      "Ġspectrum": 4281,
      "ĠSum": 4282,
      "Ġresistance": 4283,
      "Ġcalculations": 4284,
      "Ġcomputation": 4285,
      "code": 4286,
      "pmatrix": 4287,
      "frak": 4288,
      "varepsilon": 4289,
      "Ġscienti": 4290,
      "2018": 4291,
      "2019": 4292,
      "Ġcritical": 4293,
      "Ġcontin": 4294,
      "ĠTags": 4295,
      "AD": 4296,
      "$=": 4297,
      "},\\": 4298,
      "go": 4299,
      "Ġ\\$": 4300,
      "Ġderived": 4301,
      "di": 4302,
      "ĠII": 4303,
      "ĠYour": 4304,
      "Ġpresented": 4305,
      "Sigma": 4306,
      "ef": 4307,
      "tag": 4308,
      "ĠVari": 4309,
      "Ġillust": 4310,
      "MS": 4311,
      "Ġcyl": 4312,
      "Ġexpressed": 4313,
      "Ġobservations": 4314,
      "ius": 4315,
      "Ġarch": 4316,
      "ĠDefinition": 4317,
      "Ġwar": 4318,
      "Ġstatistics": 4319,
      "ĠGraph": 4320,
      "orld": 4321,
      "ĠEngine": 4322,
      "cd": 4323,
      "ĠTeX": 4324,
      "ĠGiven": 4325,
      "abol": 4326,
      "Ġprior": 4327,
      "amed": 4328,
      "ĠCent": 4329,
      "Ġpartition": 4330,
      "Ġcharacters": 4331,
      "Ġavoid": 4332,
      "Ġstyle": 4333,
      "ession": 4334,
      "Ġchann": 4335,
      "Ġunknown": 4336,
      "ken": 4337,
      "Ġprote": 4338,
      "amil": 4339,
      "Ġdetermined": 4340,
      "tific": 4341,
      "ometry": 4342,
      "Ġdistributions": 4343,
      "ĠInstitute": 4344,
      "ocation": 4345,
      "Ġstatistical": 4346,
      "pg": 4347,
      "Ġestimated": 4348,
      "Open": 4349,
      "ĠProbab": 4350,
      "Ġcarbon": 4351,
      "Yes": 4352,
      "Ġfall": 4353,
      "ĠHence": 4354,
      "Ġcompared": 4355,
      "oring": 4356,
      "chi": 4357,
      "Ġforces": 4358,
      "ĠChem": 4359,
      "Ġjob": 4360,
      "Ġincluded": 4361,
      "ĠJune": 4362,
      "Author": 4363,
      "Ġgain": 4364,
      "ÂŃ": 4365,
      "ident": 4366,
      "Ġrisk": 4367,
      "Ġcombination": 4368,
      "connected": 4369,
      "Ġtravel": 4370,
      "âī": 4371,
      "Ġcells": 4372,
      "vol": 4373,
      "Ġvideo": 4374,
      "Ġdistributed": 4375,
      "pril": 4376,
      "lement": 4377,
      "Name": 4378,
      "ols": 4379,
      "Ġarguments": 4380,
      "}^\\": 4381,
      "ĠRiemann": 4382,
      "ĠInst": 4383,
      "Ġincreases": 4384,
      "Ġdistinct": 4385,
      "hspace": 4386,
      "åŃ": 4387,
      "Ġlocation": 4388,
      "pir": 4389,
      "algebra": 4390,
      "ĠDescription": 4391,
      "cision": 4392,
      "vation": 4393,
      "tr": 4394,
      "raft": 4395,
      "ĠBas": 4396,
      "Ġ45": 4397,
      "Ġtopological": 4398,
      "mathfrak": 4399,
      "Ġproduced": 4400,
      "Ġoscill": 4401,
      "estions": 4402,
      "Ġlonger": 4403,
      "ĠType": 4404,
      "div": 4405,
      "ĠReview": 4406,
      "lected": 4407,
      "Ġcollection": 4408,
      "Ġestab": 4409,
      "fig": 4410,
      "Ġasking": 4411,
      "Ġundefined": 4412,
      "Ġnature": 4413,
      "Ġtreat": 4414,
      "App": 4415,
      "View": 4416,
      "Ġrelevant": 4417,
      "iting": 4418,
      "chastic": 4419,
      "add": 4420,
      "Ġmaybe": 4421,
      "Ġcorrelation": 4422,
      "tikz": 4423,
      "cember": 4424,
      "Time": 4425,
      "ugh": 4426,
      "}&": 4427,
      "Ġminimal": 4428,
      "Ġexpressions": 4429,
      "otimes": 4430,
      "ĠResearch": 4431,
      "%%%%": 4432,
      "uclid": 4433,
      "Ġstar": 4434,
      "osen": 4435,
      "ribute": 4436,
      "plicate": 4437,
      "Ġtools": 4438,
      "ĠAC": 4439,
      "erc": 4440,
      "aly": 4441,
      "Ġinfinity": 4442,
      "Ġchild": 4443,
      "Ġrecently": 4444,
      "tif": 4445,
      "tered": 4446,
      "Ġgoal": 4447,
      "Ġstudent": 4448,
      "Ġoptimization": 4449,
      "Ġevaluate": 4450,
      "qquad": 4451,
      "ley": 4452,
      "Ġresource": 4453,
      "Ġexpand": 4454,
      "volution": 4455,
      "æľ": 4456,
      "ube": 4457,
      "Ġimplementation": 4458,
      "oin": 4459,
      "Ġcame": 4460,
      "ĠView": 4461,
      "Ġmarket": 4462,
      "Ġnotes": 4463,
      "ĠOp": 4464,
      "Ġ09": 4465,
      "uracy": 4466,
      "Ġissues": 4467,
      "ĠPart": 4468,
      "Ġcomputing": 4469,
      "79": 4470,
      "Ġsymmetry": 4471,
      "Ġbrow": 4472,
      "iddle": 4473,
      "iom": 4474,
      "With": 4475,
      "Ġdatab": 4476,
      "Ġbran": 4477,
      "Ġideas": 4478,
      "level": 4479,
      "Ġfeed": 4480,
      "Ġprac": 4481,
      "ĠSuppose": 4482,
      "Ġcoll": 4483,
      "Ġdataset": 4484,
      "Ġnucle": 4485,
      "edge": 4486,
      "Ġsometimes": 4487,
      "........": 4488,
      "Ġincludes": 4489,
      "Ġschool": 4490,
      "ĠVolume": 4491,
      "2017": 4492,
      "Ġanalog": 4493,
      "ĠCO": 4494,
      "scrib": 4495,
      "html": 4496,
      "Ġpdf": 4497,
      "Ġconnect": 4498,
      "Ġsolid": 4499,
      "Ġarticles": 4500,
      "}^{-": 4501,
      "Ġintroduced": 4502,
      "uel": 4503,
      "ront": 4504,
      "ĠTime": 4505,
      "irt": 4506,
      "Ġconfiguration": 4507,
      "Ġdecom": 4508,
      "Ġsuppose": 4509,
      "Ġlead": 4510,
      "Ġpredic": 4511,
      ")*": 4512,
      "isms": 4513,
      "Ġallowed": 4514,
      "();": 4515,
      "uk": 4516,
      "Ġconj": 4517,
      "reng": 4518,
      "Ġoutside": 4519,
      "Ġliqu": 4520,
      "Ġsegment": 4521,
      "vector": 4522,
      "cks": 4523,
      "Ġgrowth": 4524,
      "Ġotherwise": 4525,
      "\":": 4526,
      "path": 4527,
      "Ġgradient": 4528,
      "Key": 4529,
      "ĠMathematic": 4530,
      "uper": 4531,
      "Ġmax": 4532,
      "jecture": 4533,
      "sure": 4534,
      "orn": 4535,
      "Ġhome": 4536,
      "Ġtesting": 4537,
      "rule": 4538,
      "berg": 4539,
      "Ġlevels": 4540,
      "Ġtutorial": 4541,
      "inc": 4542,
      "Ġ$|": 4543,
      "key": 4544,
      "Ġdiscussion": 4545,
      ".;": 4546,
      "Ġusual": 4547,
      "Ġframework": 4548,
      "aking": 4549,
      "stein": 4550,
      "72": 4551,
      "erg": 4552,
      "Ġdual": 4553,
      "icy": 4554,
      "Ġlayer": 4555,
      "Ġhuman": 4556,
      "2020": 4557,
      "Ġentry": 4558,
      "Ġneighb": 4559,
      "Ġsec": 4560,
      "Ġband": 4561,
      "Ġcle": 4562,
      "Ġmoney": 4563,
      "clud": 4564,
      "}_{\\": 4565,
      "73": 4566,
      "Ġfive": 4567,
      "Ġreach": 4568,
      "unch": 4569,
      "Thank": 4570,
      "Ġmechanics": 4571,
      "Ġauthors": 4572,
      "Ġinterface": 4573,
      "Ġderivatives": 4574,
      "Ġlattice": 4575,
      "ĠBl": 4576,
      "Ġcompare": 4577,
      "Ġsources": 4578,
      "sage": 4579,
      "Ġcondu": 4580,
      "ĠEnglish": 4581,
      "Ġpermut": 4582,
      "{{\\": 4583,
      "Ġrob": 4584,
      "aven": 4585,
      "Ġconser": 4586,
      "Ã¡": 4587,
      "Ġarithmetic": 4588,
      "ĠPrep": 4589,
      "Ġport": 4590,
      "ĠStandard": 4591,
      "ards": 4592,
      "Ġtechnique": 4593,
      "olar": 4594,
      "Ġpapers": 4595,
      "ĠArticle": 4596,
      "tes": 4597,
      "Ġbad": 4598,
      "that": 4599,
      "input": 4600,
      "Ġaccur": 4601,
      "ptember": 4602,
      "He": 4603,
      "Ġsound": 4604,
      "Ġuni": 4605,
      "Ġexperience": 4606,
      "ade": 4607,
      "}{(": 4608,
      "Ġmonths": 4609,
      "Ġmentioned": 4610,
      "69": 4611,
      "Ġappreciated": 4612,
      "Step": 4613,
      "ĠLearning": 4614,
      "Ġdenote": 4615,
      "eros": 4616,
      "Ġphen": 4617,
      "Show": 4618,
      "ovember": 4619,
      "ĠExp": 4620,
      "Ġexternal": 4621,
      "CC": 4622,
      "EM": 4623,
      "Pre": 4624,
      "Ġmarg": 4625,
      "metric": 4626,
      "ðĿļ": 4627,
      "ĠReferences": 4628,
      "81": 4629,
      "Ġapproaches": 4630,
      "Ġcounter": 4631,
      "pecific": 4632,
      "Ġutil": 4633,
      "mitted": 4634,
      "ober": 4635,
      "Ġreduce": 4636,
      "84": 4637,
      "string": 4638,
      "inetic": 4639,
      "ĠSystems": 4640,
      "Ġ02": 4641,
      "ĠJohn": 4642,
      "Ġintersection": 4643,
      "doi": 4644,
      "latex": 4645,
      "seud": 4646,
      "ruary": 4647,
      "}-\\": 4648,
      "ung": 4649,
      "Ġsituation": 4650,
      "ĠGeometry": 4651,
      "ared": 4652,
      "there": 4653,
      "ĠPublished": 4654,
      "Ġbackground": 4655,
      "ogeneous": 4656,
      "63": 4657,
      "Using": 4658,
      "Ġlogarithm": 4659,
      "Ġelliptic": 4660,
      "ev": 4661,
      "ĠBay": 4662,
      "Ġquas": 4663,
      "acter": 4664,
      "NA": 4665,
      "vey": 4666,
      "implies": 4667,
      "allest": 4668,
      "otient": 4669,
      "model": 4670,
      "atur": 4671,
      "Ġpow": 4672,
      "Ġgeneralized": 4673,
      "92": 4674,
      "Ġdele": 4675,
      "Ġsymbols": 4676,
      "Ġprom": 4677,
      "lier": 4678,
      "+(": 4679,
      "iling": 4680,
      "ops": 4681,
      "Ġ1000": 4682,
      "iness": 4683,
      "Ġstore": 4684,
      "};": 4685,
      "icular": 4686,
      "ĠIss": 4687,
      "rient": 4688,
      "Ġinvest": 4689,
      "Ġmaterials": 4690,
      "lege": 4691,
      "ĠEdition": 4692,
      "OI": 4693,
      "Ġstudies": 4694,
      "Ġalternative": 4695,
      "Ġcontact": 4696,
      "After": 4697,
      "Ġfair": 4698,
      "itz": 4699,
      "Ġbounds": 4700,
      "bold": 4701,
      "ĠHy": 4702,
      "Ġshowing": 4703,
      ")/(": 4704,
      "ĠWell": 4705,
      "Ġcommut": 4706,
      "Ġmacro": 4707,
      "Some": 4708,
      "Ġmist": 4709,
      "Ġdynamics": 4710,
      "Expl": 4711,
      "Ġremove": 4712,
      "Ġremember": 4713,
      "subseteq": 4714,
      "ĠMin": 4715,
      "Ġupdate": 4716,
      "ĠConsider": 4717,
      "ano": 4718,
      "ĠPublic": 4719,
      "Ġexcept": 4720,
      "Ġelectro": 4721,
      "Ġmeas": 4722,
      "Ġpure": 4723,
      "Ġnet": 4724,
      "ryst": 4725,
      "Ġbund": 4726,
      "rap": 4727,
      "ibly": 4728,
      "Ġrectangle": 4729,
      "Ġserver": 4730,
      "ĠFunctions": 4731,
      "Ġfully": 4732,
      "ĠProgram": 4733,
      ")}^{": 4734,
      "ĠSpe": 4735,
      "Ġnetworks": 4736,
      "ĠSciences": 4737,
      "ĠNewton": 4738,
      "Ġvs": 4739,
      "Ġ$\\{": 4740,
      "Ġdiameter": 4741,
      "Also": 4742,
      "Ġassuming": 4743,
      "Ġequals": 4744,
      "Ġseparate": 4745,
      "ios": 4746,
      "ike": 4747,
      "Ġwindow": 4748,
      "Ġsubst": 4749,
      "Ġabstract": 4750,
      "page": 4751,
      "Ġseconds": 4752,
      "Ġhypothesis": 4753,
      "ĠGaussian": 4754,
      "ager": 4755,
      "Ġmapping": 4756,
      "Ġwanted": 4757,
      "then": 4758,
      "ĠVer": 4759,
      "inuous": 4760,
      "Ġtypically": 4761,
      "Hello": 4762,
      "acy": 4763,
      "________________": 4764,
      "Ġmembers": 4765,
      "Use": 4766,
      "hand": 4767,
      "Ġalign": 4768,
      "Ġespecially": 4769,
      "Ġfaster": 4770,
      "Ġwaves": 4771,
      "eturn": 4772,
      "Ġslight": 4773,
      "Ġtoday": 4774,
      "ĠĠĠĠĠĠ": 4775,
      "Ġproved": 4776,
      "enn": 4777,
      "ĠPoint": 4778,
      "pendicular": 4779,
      "Ġcapac": 4780,
      "List": 4781,
      "Ġunstable": 4782,
      "Ġconfused": 4783,
      "Ġfocus": 4784,
      "~~~~": 4785,
      "amilton": 4786,
      "âĶ": 4787,
      "Ġtriv": 4788,
      "dc": 4789,
      "Ġpul": 4790,
      "Ġperiodic": 4791,
      "fficiency": 4792,
      "Ġbul": 4793,
      "Ġemail": 4794,
      "Ġcycle": 4795,
      "åı": 4796,
      "ĠJanuary": 4797,
      "ĠCalculate": 4798,
      "agraph": 4799,
      "Ġdevice": 4800,
      "Ġgal": 4801,
      "istribution": 4802,
      "pert": 4803,
      "Ġreferences": 4804,
      "Ġvariety": 4805,
      "83": 4806,
      "ians": 4807,
      "Â·": 4808,
      "Ġcomments": 4809,
      "textbf": 4810,
      "Ġchanged": 4811,
      "Ġdocumentation": 4812,
      "Ġinteraction": 4813,
      "Ġachieve": 4814,
      "ĠApril": 4815,
      "Ġwebs": 4816,
      "ĠHomework": 4817,
      "Ġcommands": 4818,
      "Calcul": 4819,
      "Orig": 4820,
      "ĠForum": 4821,
      "ĠSur": 4822,
      "Ass": 4823,
      "Ġpolar": 4824,
      "ĠSp": 4825,
      "Ġentries": 4826,
      "bolic": 4827,
      "itational": 4828,
      "Ġselected": 4829,
      "Ob": 4830,
      ")|": 4831,
      "ĠOver": 4832,
      "Ġplus": 4833,
      "Ġ2022": 4834,
      "Ġestimates": 4835,
      "Ġfluid": 4836,
      "lab": 4837,
      "ults": 4838,
      "ky": 4839,
      "const": 4840,
      "rength": 4841,
      "Ġox": 4842,
      "ensive": 4843,
      ".[": 4844,
      "File": 4845,
      "Ġdependent": 4846,
      "ĠDeta": 4847,
      "Ġdefinite": 4848,
      "Ġintu": 4849,
      "82": 4850,
      "ameters": 4851,
      "Ġspecify": 4852,
      "Ġsingular": 4853,
      "sto": 4854,
      "Ġ:)": 4855,
      "Ġbuilt": 4856,
      "phantom": 4857,
      ",...": 4858,
      "ĠGra": 4859,
      "ĠSolutions": 4860,
      "umin": 4861,
      "Ġcomplic": 4862,
      "ĠYes": 4863,
      "ĠLaw": 4864,
      "ĠDepartment": 4865,
      "utive": 4866,
      "Ġitems": 4867,
      "Ġconnection": 4868,
      "Ġextreme": 4869,
      "Ġprocedure": 4870,
      "Ġ<=": 4871,
      "ynamics": 4872,
      "ients": 4873,
      "Ġ=\\": 4874,
      "Ġformed": 4875,
      "Ġsubgroup": 4876,
      "binom": 4877,
      "ogonal": 4878,
      "Ġquality": 4879,
      "Ġrepl": 4880,
      "Ġpiece": 4881,
      "Ġupon": 4882,
      "Ġdeep": 4883,
      "ĠJava": 4884,
      "Ġunc": 4885,
      "hal": 4886,
      "ee": 4887,
      "Ġinstru": 4888,
      "Ġtag": 4889,
      "Ġconcepts": 4890,
      "long": 4891,
      "Ġsimplify": 4892,
      "Dif": 4893,
      "ones": 4894,
      "Ġsix": 4895,
      "ĠGet": 4896,
      "New": 4897,
      "Ġreact": 4898,
      "ĠGal": 4899,
      "Ġchosen": 4900,
      "mary": 4901,
      "Ġcore": 4902,
      "Ġintegrals": 4903,
      "Ġdepending": 4904,
      "osing": 4905,
      "agement": 4906,
      "Why": 4907,
      "Ġprof": 4908,
      "ĠMAT": 4909,
      "Ġreduced": 4910,
      "frame": 4911,
      "2015": 4912,
      "91": 4913,
      "trans": 4914,
      "Ġwall": 4915,
      "Ġearth": 4916,
      "ĠCalculus": 4917,
      "Ġbuilding": 4918,
      "Ġkg": 4919,
      "Ġtrad": 4920,
      "Ġhim": 4921,
      "write": 4922,
      "Ġign": 4923,
      "Ġstudied": 4924,
      "monic": 4925,
      "ĠEnergy": 4926,
      "Ġrows": 4927,
      "Ġdiverges": 4928,
      "ĠSym": 4929,
      "Ġdivision": 4930,
      "ingu": 4931,
      "Ġadvanced": 4932,
      "Ġmolecules": 4933,
      "free": 4934,
      "rently": 4935,
      "Ġwavelength": 4936,
      "Ġliquid": 4937,
      "ING": 4938,
      "board": 4939,
      "zeta": 4940,
      "Ġhistory": 4941,
      "olf": 4942,
      "sect": 4943,
      "Ġforward": 4944,
      "Ġhelps": 4945,
      "Ġdiscussed": 4946,
      "Ġeigenvalues": 4947,
      "ĠSchool": 4948,
      "rouble": 4949,
      "cases": 4950,
      "hy": 4951,
      "rections": 4952,
      "ilbert": 4953,
      "Ġtheoretical": 4954,
      "Ġcause": 4955,
      "TR": 4956,
      "Ġvan": 4957,
      "ĠDecember": 4958,
      "redu": 4959,
      "dependent": 4960,
      "Ġkm": 4961,
      "Ġbehind": 4962,
      "Ġcommunic": 4963,
      "Ġhydrogen": 4964,
      "La": 4965,
      "fill": 4966,
      "Ġ=>": 4967,
      "Ġobvious": 4968,
      "Ġbits": 4969,
      "ĠExamples": 4970,
      "alities": 4971,
      "ĠAB": 4972,
      "Ġposted": 4973,
      "Which": 4974,
      "Ġconcentration": 4975,
      "lin": 4976,
      "åĪ": 4977,
      "levant": 4978,
      "Ġareas": 4979,
      "Ġrates": 4980,
      "angular": 4981,
      "poss": 4982,
      "sf": 4983,
      "sts": 4984,
      "ĠAmerican": 4985,
      "lu": 4986,
      "rip": 4987,
      "Ġ08": 4988,
      "FF": 4989,
      "source": 4990,
      "ĠStat": 4991,
      "Ġletters": 4992,
      "Therefore": 4993,
      "ĠSeries": 4994,
      "Ġrecord": 4995,
      "Ġunivers": 4996,
      "Ġautomatically": 4997,
      "head": 4998,
      "ĠRem": 4999,
      "oph": 5000,
      "Ġmember": 5001,
      "ĠDes": 5002,
      "ĠArch": 5003,
      "Ġequivalence": 5004,
      "ried": 5005,
      "ĠProper": 5006,
      "Ġstock": 5007,
      "xygen": 5008,
      "SP": 5009,
      "Ġ64": 5010,
      "Ġinser": 5011,
      "ĠAcc": 5012,
      "Ġ80": 5013,
      ",\\,\\": 5014,
      "âĢ¦âĢ¦": 5015,
      "Ġoccurs": 5016,
      "draw": 5017,
      "Ġkernel": 5018,
      "Ġ34": 5019,
      "ulate": 5020,
      "rence": 5021,
      "Ġlimited": 5022,
      "ĠTimer": 5023,
      "Ġfont": 5024,
      "Ġinvalid": 5025,
      "ĠFigure": 5026,
      "lt": 5027,
      "Ġmi": 5028,
      "Ġcontribution": 5029,
      "index": 5030,
      "ĠEngineering": 5031,
      "Pa": 5032,
      "ante": 5033,
      "aring": 5034,
      "acher": 5035,
      "ĠState": 5036,
      "Ġrecogn": 5037,
      "Vol": 5038,
      "Ġmer": 5039,
      "EX": 5040,
      "Ġbus": 5041,
      "cible": 5042,
      "ĠRev": 5043,
      "ĠMarch": 5044,
      "Ġmetal": 5045,
      "number": 5046,
      "Ġstress": 5047,
      "Ġage": 5048,
      "Ġmorph": 5049,
      "Ġperpendicular": 5050,
      "Col": 5051,
      "ifier": 5052,
      "Ġcircum": 5053,
      "Ġcube": 5054,
      "vents": 5055,
      "ĠID": 5056,
      "ĠSection": 5057,
      "Ġextract": 5058,
      ">>>": 5059,
      "uclide": 5060,
      "Ġatomic": 5061,
      "ĠGre": 5062,
      "iliar": 5063,
      "Ġrecommend": 5064,
      "ĠOper": 5065,
      "Ġassumed": 5066,
      "Ġevolution": 5067,
      "approx": 5068,
      "lies": 5069,
      "```": 5070,
      "ĠSimilar": 5071,
      "Ġeditor": 5072,
      "Ġdifferences": 5073,
      "ĠMathematica": 5074,
      "SA": 5075,
      "elian": 5076,
      "Ġletter": 5077,
      "Ġlargest": 5078,
      "uf": 5079,
      "Ġever": 5080,
      "ĠAdd": 5081,
      "Ġ01": 5082,
      "struct": 5083,
      "ĠComp": 5084,
      "2016": 5085,
      "Ġpurpose": 5086,
      "Ġconjecture": 5087,
      "plus": 5088,
      "Ġsmallest": 5089,
      "See": 5090,
      "ael": 5091,
      "Ġaim": 5092,
      "plied": 5093,
      "Are": 5094,
      "ctivity": 5095,
      "Ġpy": 5096,
      "Ġpublished": 5097,
      "plate": 5098,
      "ĠNum": 5099,
      "Ġdefinitions": 5100,
      "Hence": 5101,
      "Ġexisting": 5102,
      "cation": 5103,
      "ĠEuler": 5104,
      "ĠTR": 5105,
      "Ġ33": 5106,
      "ptions": 5107,
      "isson": 5108,
      "Ġfri": 5109,
      "ĠLat": 5110,
      "Ġclassification": 5111,
      "Ġconstants": 5112,
      "Ġblue": 5113,
      "ativity": 5114,
      "atial": 5115,
      "tially": 5116,
      "ĠAuthor": 5117,
      "Ġcomputed": 5118,
      "Ġ05": 5119,
      "Ġaccuracy": 5120,
      "herical": 5121,
      "essage": 5122,
      "ridge": 5123,
      "Ġintroduce": 5124,
      "irm": 5125,
      "CM": 5126,
      "ye": 5127,
      "ĠInput": 5128,
      "Ġdesired": 5129,
      "mediate": 5130,
      "Ġplayer": 5131,
      "aut": 5132,
      "ategy": 5133,
      "Ġcompany": 5134,
      "ĠSeptember": 5135,
      "hest": 5136,
      "Ġidentify": 5137,
      "ĠDeterm": 5138,
      "Ġchanging": 5139,
      "Ġphenomen": 5140,
      "ULL": 5141,
      "mathit": 5142,
      "ĠJuly": 5143,
      "Ġapproximately": 5144,
      "Ġcat": 5145,
      "Input": 5146,
      "Ġsyntax": 5147,
      "Form": 5148,
      "cies": 5149,
      "Ġcriter": 5150,
      "Thus": 5151,
      "ortunately": 5152,
      "Ġimpact": 5153,
      "Ġentropy": 5154,
      "ĠEquation": 5155,
      "Ġinvariant": 5156,
      "she": 5157,
      "ini": 5158,
      "itable": 5159,
      "Get": 5160,
      "Ġrequest": 5161,
      "ounts": 5162,
      "appa": 5163,
      "Ġcollisions": 5164,
      "Co": 5165,
      "Ġmaint": 5166,
      "ĠPhys": 5167,
      "Ġtowards": 5168,
      "Ġstuck": 5169,
      "Ġdescribes": 5170,
      "Ġdigit": 5171,
      "Dis": 5172,
      "iers": 5173,
      "Ġund": 5174,
      "ipher": 5175,
      "Ġconjug": 5176,
      "ĠJust": 5177,
      "Ġtrouble": 5178,
      "Ġdimensional": 5179,
      "Ġderive": 5180,
      "Ġsubtract": 5181,
      "Ġnull": 5182,
      "ĠCode": 5183,
      "can": 5184,
      "open": 5185,
      "Ġtriangles": 5186,
      "Ġdatabase": 5187,
      "iler": 5188,
      "Ġjoint": 5189,
      "Ġplaced": 5190,
      "Me": 5191,
      "Ġperhaps": 5192,
      "Ġreduction": 5193,
      "Staff": 5194,
      "run": 5195,
      "Ġexperimental": 5196,
      "Ġclearly": 5197,
      "Ġthermal": 5198,
      "vate": 5199,
      "ĠSem": 5200,
      "ills": 5201,
      "ĠWhile": 5202,
      "500": 5203,
      "}|": 5204,
      "Ġgiving": 5205,
      "ĠOctober": 5206,
      "Hz": 5207,
      "Ġmeet": 5208,
      "Ġprefer": 5209,
      "Ġsubstitution": 5210,
      "Ġexc": 5211,
      "Ġrole": 5212,
      "Ġstarts": 5213,
      "Ġdownload": 5214,
      "CE": 5215,
      "tilde": 5216,
      "Ġrig": 5217,
      "Ġspecies": 5218,
      "Ġstack": 5219,
      "Ġsecur": 5220,
      ")$$.": 5221,
      "ĠFin": 5222,
      "Ġ07": 5223,
      "Ġstrict": 5224,
      "Ġinflu": 5225,
      "Ġans": 5226,
      "Ġhint": 5227,
      "ĠValue": 5228,
      "Int": 5229,
      "aligned": 5230,
      "LS": 5231,
      "May": 5232,
      "Ġstation": 5233,
      "Ġcovari": 5234,
      "ĠBecause": 5235,
      "^(": 5236,
      "char": 5237,
      "Ġstuff": 5238,
      "tocol": 5239,
      "produ": 5240,
      "Ġiden": 5241,
      "Ġflat": 5242,
      "Ġaxiom": 5243,
      "Ġalthough": 5244,
      "ĠNovember": 5245,
      "ĠApplications": 5246,
      "Rec": 5247,
      "ĠCal": 5248,
      "Ġpackages": 5249,
      "Ġconcern": 5250,
      "IR": 5251,
      "state": 5252,
      "Ġstability": 5253,
      "Ġstrategy": 5254,
      "}}}": 5255,
      "Ġdisconnected": 5256,
      "Ġtimer": 5257,
      "âĭ": 5258,
      "Ġorient": 5259,
      "ĠNetwork": 5260,
      "minus": 5261,
      "kg": 5262,
      "Ġwire": 5263,
      "71": 5264,
      "Ġlanguages": 5265,
      "normal": 5266,
      "enari": 5267,
      "ĠĠĠĠĠĠĠ": 5268,
      "Ġwondering": 5269,
      "ĠIdenti": 5270,
      "ibli": 5271,
      "inux": 5272,
      "rew": 5273,
      "Ġkinetic": 5274,
      "}$$,": 5275,
      "Problem": 5276,
      "zed": 5277,
      "lli": 5278,
      "uclidean": 5279,
      "74": 5280,
      "gent": 5281,
      "ister": 5282,
      "Ġneural": 5283,
      "local": 5284,
      "Ġpercentage": 5285,
      "$:": 5286,
      "ĠCirc": 5287,
      "Ġabsor": 5288,
      "Ġsupposed": 5289,
      "Ġtal": 5290,
      "Ġwin": 5291,
      "Ġonto": 5292,
      "Ġnumerator": 5293,
      "AA": 5294,
      "table": 5295,
      "ĠHigh": 5296,
      "Ġlocally": 5297,
      "hel": 5298,
      "Ġwhite": 5299,
      "lihood": 5300,
      "Ġunderlying": 5301,
      "Ġsampling": 5302,
      "Ġinner": 5303,
      "ĠError": 5304,
      "ĠUnder": 5305,
      "Ġalgebras": 5306,
      "Ġexperiments": 5307,
      "float": 5308,
      "Please": 5309,
      "Ġstrength": 5310,
      "cipal": 5311,
      "ÏĢ": 5312,
      "Ġ{{": 5313,
      "Ġindeed": 5314,
      "Ġcorrespond": 5315,
      "Ġscreen": 5316,
      "IG": 5317,
      "Ġaff": 5318,
      "rown": 5319,
      "ĠField": 5320,
      "Ġnecessarily": 5321,
      "rim": 5322,
      "atform": 5323,
      "Ġclock": 5324,
      "Ġclar": 5325,
      "ĠWrite": 5326,
      "ĠFurther": 5327,
      "Ġhaven": 5328,
      "ĠAut": 5329,
      "Ġplaces": 5330,
      "Ġsatisfy": 5331,
      "ĠFebruary": 5332,
      "OC": 5333,
      "Ġinvolving": 5334,
      "symbol": 5335,
      "field": 5336,
      "Ġprocessing": 5337,
      "Ġtopics": 5338,
      "ĠProblems": 5339,
      "Ġproportional": 5340,
      "ĠSm": 5341,
      "Ġamplit": 5342,
      "Ġturns": 5343,
      "eries": 5344,
      "ĠNone": 5345,
      "Sum": 5346,
      "Where": 5347,
      "vature": 5348,
      "Î¸": 5349,
      "Ġfoot": 5350,
      "Ġradiation": 5351,
      "Ġcomplicated": 5352,
      "ĠFr": 5353,
      "Ġfriction": 5354,
      "si": 5355,
      "Ġtook": 5356,
      "Ġdeb": 5357,
      "ecture": 5358,
      "well": 5359,
      "war": 5360,
      "Ġste": 5361,
      "Ġsatisfies": 5362,
      "ĠDef": 5363,
      "Ġspectral": 5364,
      "Ġmid": 5365,
      "Ġmixed": 5366,
      "âĢľ": 5367,
      "wered": 5368,
      "Ġsca": 5369,
      "ĠRE": 5370,
      "âĢĿ,": 5371,
      "Ġsaying": 5372,
      "GL": 5373,
      "alled": 5374,
      "ĠLie": 5375,
      "Ġquotient": 5376,
      "clic": 5377,
      "ĠComplex": 5378,
      "Ġhour": 5379,
      "anguage": 5380,
      "mbox": 5381,
      "Ġfac": 5382,
      "Ġgave": 5383,
      "Ġexercise": 5384,
      "Ġapproximate": 5385,
      "ĠProject": 5386,
      "Ġbooks": 5387,
      "Ġgram": 5388,
      "--------------------------------": 5389,
      "Gener": 5390,
      "Ġtrack": 5391,
      "ĠHT": 5392,
      "Ġcalculating": 5393,
      "ĠComputer": 5394,
      "Ġtrivial": 5395,
      "uming": 5396,
      "Big": 5397,
      "Ġordered": 5398,
      "Ġthread": 5399,
      "tention": 5400,
      "ĠMR": 5401,
      "ĠShare": 5402,
      "Ġbelong": 5403,
      "ĠAlgorithm": 5404,
      "Ġbehavi": 5405,
      "Ġdecomposition": 5406,
      "Ġcompound": 5407,
      "Ġphoton": 5408,
      "Ġtwice": 5409,
      "Ġnotion": 5410,
      "Ġdepth": 5411,
      "Reg": 5412,
      "Ġaspect": 5413,
      "ching": 5414,
      "ifies": 5415,
      "---": 5416,
      "Ġinputs": 5417,
      "Ġmoves": 5418,
      "Ġbeginning": 5419,
      "step": 5420,
      "Ġ03": 5421,
      "Ġhighly": 5422,
      "Ġwebsite": 5423,
      "ĠWikipedia": 5424,
      "inty": 5425,
      "ĠAT": 5426,
      "ĠHamilton": 5427,
      "Ġsurfaces": 5428,
      "Ġguide": 5429,
      "Ġadjust": 5430,
      "Ġresolution": 5431,
      "Solve": 5432,
      "imeter": 5433,
      "ĠDiv": 5434,
      "version": 5435,
      "Ad": 5436,
      "figure": 5437,
      "Ġ$=": 5438,
      "1000": 5439,
      "62": 5440,
      "rc": 5441,
      "rated": 5442,
      "Ġdecl": 5443,
      "anges": 5444,
      "Ġcreating": 5445,
      "dim": 5446,
      "gener": 5447,
      "äº": 5448,
      "Ġheav": 5449,
      "ials": 5450,
      "Not": 5451,
      "Ġliterature": 5452,
      "Ġast": 5453,
      "Ġbene": 5454,
      "iter": 5455,
      "link": 5456,
      "hib": 5457,
      "Ġpm": 5458,
      "Ġnp": 5459,
      "ĠST": 5460,
      "Ġarc": 5461,
      "Ġperformed": 5462,
      "Ġstochastic": 5463,
      "Ġposts": 5464,
      "lines": 5465,
      "scale": 5466,
      "Ġearly": 5467,
      "Follow": 5468,
      "PU": 5469,
      "plo": 5470,
      "âĢĿ.": 5471,
      "ae": 5472,
      "Ġcategories": 5473,
      "Ġface": 5474,
      "Stud": 5475,
      "omain": 5476,
      "ret": 5477,
      "ĠZh": 5478,
      "ĠSecond": 5479,
      ")}\\": 5480,
      "PC": 5481,
      "ĠChar": 5482,
      "Ġå": 5483,
      "åŃ¦": 5484,
      "rand": 5485,
      "Ġcircular": 5486,
      "Ġnamed": 5487,
      "ĠChina": 5488,
      "Ġslightly": 5489,
      "aker": 5490,
      "Ġdesigned": 5491,
      "tack": 5492,
      "Ġworked": 5493,
      "Ġadvant": 5494,
      "Ġmolecular": 5495,
      "arante": 5496,
      "Ġdt": 5497,
      "ĠSing": 5498,
      "romagnetic": 5499,
      "parse": 5500,
      "Ġdecision": 5501,
      "Ġpix": 5502,
      "Ġfamiliar": 5503,
      "tainty": 5504,
      "ished": 5505,
      "ĠLag": 5506,
      "Ġvariation": 5507,
      "\\|": 5508,
      "Ġstrings": 5509,
      "Ġdynamic": 5510,
      "Ġgravitational": 5511,
      "Ġcommunity": 5512,
      "cell": 5513,
      "aylor": 5514,
      "ĠProbability": 5515,
      "ĠLim": 5516,
      "bi": 5517,
      "oud": 5518,
      "ĠTri": 5519,
      "ĠDate": 5520,
      "make": 5521,
      "tible": 5522,
      "Ġpseud": 5523,
      "Ġfollowed": 5524,
      "Ġ70": 5525,
      "Ġsecurity": 5526,
      "RL": 5527,
      "Ġsections": 5528,
      "olean": 5529,
      "Ġincreased": 5530,
      "small": 5531,
      "^{(": 5532,
      "ĠMatrix": 5533,
      "Ġsupply": 5534,
      "Ġenter": 5535,
      "Ġsupported": 5536,
      "Ġmolecule": 5537,
      "Ġdot": 5538,
      "sequence": 5539,
      "ĠHilbert": 5540,
      "negative": 5541,
      "Ġgenerating": 5542,
      "note": 5543,
      "2014": 5544,
      "show": 5545,
      "PT": 5546,
      "rs": 5547,
      "Ġrelatively": 5548,
      "2012": 5549,
      "node": 5550,
      "Ġtables": 5551,
      "ĠOptim": 5552,
      "nals": 5553,
      "Ġexponent": 5554,
      "tem": 5555,
      "points": 5556,
      "Ġefficiency": 5557,
      "Ġcomposition": 5558,
      "Ġhandle": 5559,
      "Ġchannel": 5560,
      "ichael": 5561,
      "ĠMed": 5562,
      "ateral": 5563,
      "mosp": 5564,
      "asks": 5565,
      "Ġensure": 5566,
      "ĠUp": 5567,
      "public": 5568,
      "Ġshell": 5569,
      "Phi": 5570,
      "-(": 5571,
      "<\\": 5572,
      "mol": 5573,
      "Ġbeam": 5574,
      "Ġ&&": 5575,
      "Ġhelpful": 5576,
      "Ġtextbook": 5577,
      "Ġspa": 5578,
      "Ġprecision": 5579,
      "Well": 5580,
      "Ġcomputational": 5581,
      "vis": 5582,
      "emma": 5583,
      "ĠWhere": 5584,
      "Ġassumptions": 5585,
      "ĠAnswers": 5586,
      "OH": 5587,
      "ait": 5588,
      "Number": 5589,
      "Â²": 5590,
      "æĸ": 5591,
      "Ġoxygen": 5592,
      "ĠChe": 5593,
      "ĠInformation": 5594,
      "Ġdisk": 5595,
      "Ġscenari": 5596,
      "Ġfav": 5597,
      "ancy": 5598,
      "ĠExt": 5599,
      "elect": 5600,
      "closed": 5601,
      "Ġweights": 5602,
      "([": 5603,
      "Net": 5604,
      "author": 5605,
      "Ġcrypt": 5606,
      "Ġmis": 5607,
      "ugg": 5608,
      "Ġtrick": 5609,
      "Ġ06": 5610,
      "ĠAng": 5611,
      "2021": 5612,
      "stitut": 5613,
      "Ġpolyg": 5614,
      "Ġ04": 5615,
      "setminus": 5616,
      "Ġmut": 5617,
      "ĠAppro": 5618,
      "Ġinvolved": 5619,
      "Ġfill": 5620,
      "Ġmiddle": 5621,
      "Ġ37": 5622,
      "xture": 5623,
      "placement": 5624,
      "ĠDifferential": 5625,
      "Ġcomparison": 5626,
      "})$$": 5627,
      "Ġ2004": 5628,
      "Ġbug": 5629,
      "ryption": 5630,
      "ĠAugust": 5631,
      "Ġorthogonal": 5632,
      "isation": 5633,
      "Ġvary": 5634,
      "kappa": 5635,
      "Ġdetailed": 5636,
      "fortunately": 5637,
      "Ġwish": 5638,
      "Ġcand": 5639,
      "Ġnotice": 5640,
      "month": 5641,
      "Ġimplemented": 5642,
      "ciety": 5643,
      "term": 5644,
      "````": 5645,
      "ographic": 5646,
      "mp": 5647,
      "sur": 5648,
      "ersion": 5649,
      "arization": 5650,
      "ĠEmer": 5651,
      "Ġversions": 5652,
      "PE": 5653,
      "ka": 5654,
      "omic": 5655,
      "Ġproduces": 5656,
      "2013": 5657,
      "Ġlinks": 5658,
      "ĠOF": 5659,
      "Ġap": 5660,
      "Ġability": 5661,
      "stim": 5662,
      "Ġcryst": 5663,
      "Ġelim": 5664,
      "ĠSto": 5665,
      "Ġvac": 5666,
      "Quote": 5667,
      "tivation": 5668,
      "Ġcong": 5669,
      "izations": 5670,
      "Ġapplying": 5671,
      "Ġdemand": 5672,
      "Ġmillion": 5673,
      "Ġachie": 5674,
      "Ġparabol": 5675,
      "ublisher": 5676,
      "cor": 5677,
      "uil": 5678,
      "Ġ}\\": 5679,
      "Ġsignals": 5680,
      "Ġlatter": 5681,
      "Ġ$(\\": 5682,
      "Ġparen": 5683,
      "ĠÐ": 5684,
      "onic": 5685,
      "Ġocc": 5686,
      "izer": 5687,
      "Ġelementary": 5688,
      "'$": 5689,
      "Ġprojection": 5690,
      "ayer": 5691,
      "Ġcontra": 5692,
      "ancel": 5693,
      "Ġ65": 5694,
      "CL": 5695,
      "HS": 5696,
      "ĠOutput": 5697,
      "quently": 5698,
      "^+": 5699,
      "Ġlab": 5700,
      "Ġworth": 5701,
      "Ġprimes": 5702,
      "Ġscatter": 5703,
      "00000000": 5704,
      "61": 5705,
      "HC": 5706,
      "outh": 5707,
      "Ġprogress": 5708,
      "Ġguarante": 5709,
      "ĠTra": 5710,
      "Ġstored": 5711,
      "Ġmeant": 5712,
      "Ġcurvature": 5713,
      "idden": 5714,
      "Ġquickly": 5715,
      "joint": 5716,
      "permal": 5717,
      "Ġagree": 5718,
      "Ġmodified": 5719,
      "Ġobservation": 5720,
      "Ġleading": 5721,
      "Ġblocks": 5722,
      "Ġaccurate": 5723,
      "permalink": 5724,
      "ny": 5725,
      "yes": 5726,
      "Ġcoin": 5727,
      "MATH": 5728,
      "Ġcosts": 5729,
      "ĠDisc": 5730,
      "$).": 5731,
      "you": 5732,
      "Ġinactive": 5733,
      "ĠPC": 5734,
      "3934": 5735,
      "Ġrepresentations": 5736,
      "ĠNext": 5737,
      "Pi": 5738,
      "non": 5739,
      "ç»": 5740,
      "Ġstars": 5741,
      "Ġestimation": 5742,
      "nes": 5743,
      "Ġ48": 5744,
      "Ġsubsets": 5745,
      ".âĢĿ": 5746,
      "Per": 5747,
      "icon": 5748,
      "Ġshift": 5749,
      "Ġche": 5750,
      "Ġfa": 5751,
      "Ġarrow": 5752,
      "Ġremaining": 5753,
      "PL": 5754,
      "Script": 5755,
      "Ġattached": 5756,
      "âĶĢ": 5757,
      "UN": 5758,
      "Ġextended": 5759,
      "ĠIssue": 5760,
      "itus": 5761,
      "Ġintegrate": 5762,
      "Ġconsidering": 5763,
      "Your": 5764,
      "Ġconduct": 5765,
      "ĠDer": 5766,
      "ĠVector": 5767,
      "ĠReal": 5768,
      "Lambda": 5769,
      "[{": 5770,
      "uations": 5771,
      "Class": 5772,
      "cles": 5773,
      "Ġprotocol": 5774,
      "Ġselection": 5775,
      "}}}{": 5776,
      "lick": 5777,
      "Ġtrain": 5778,
      "certainty": 5779,
      "Multi": 5780,
      "None": 5781,
      "ded": 5782,
      "ĠHig": 5783,
      "Ġdrawn": 5784,
      "Originally": 5785,
      ")!": 5786,
      "eks": 5787,
      "à¤": 5788,
      "onometric": 5789,
      "Ġroom": 5790,
      "2010": 5791,
      "Ġdetail": 5792,
      "rays": 5793,
      "Ġtrac": 5794,
      "opic": 5795,
      "Mod": 5796,
      "gu": 5797,
      "ĠNotes": 5798,
      "Ġemploy": 5799,
      "ercises": 5800,
      "Ġgalax": 5801,
      "inst": 5802,
      "ury": 5803,
      "mathop": 5804,
      "ĠYear": 5805,
      "wide": 5806,
      "Ġsal": 5807,
      "ĠEm": 5808,
      "Ġmyself": 5809,
      "Ġmeters": 5810,
      "Ġstop": 5811,
      "iel": 5812,
      "Ġrestric": 5813,
      "Of": 5814,
      "Xiv": 5815,
      "tons": 5816,
      "onical": 5817,
      "OL": 5818,
      "oub": 5819,
      "ĠDavid": 5820,
      "ĠList": 5821,
      "Ġcorresponds": 5822,
      "Ġelastic": 5823,
      "zing": 5824,
      "Ġmathematic": 5825,
      "ĠArea": 5826,
      "wedge": 5827,
      "zy": 5828,
      "Ġbasically": 5829,
      "Ġattack": 5830,
      "Ã¼": 5831,
      "Ġhole": 5832,
      "Ġ120": 5833,
      "ĠBook": 5834,
      "ĠHa": 5835,
      "ĠQuantum": 5836,
      "Bbb": 5837,
      "Ġlatex": 5838,
      "Ġgene": 5839,
      "BA": 5840,
      "Ġfolder": 5841,
      "ĠTag": 5842,
      "ĠABC": 5843,
      "Ġmaximal": 5844,
      "bound": 5845,
      "Ġconversion": 5846,
      "Ġexplained": 5847,
      "Ġcontinue": 5848,
      "Ġquantities": 5849,
      "Ġremains": 5850,
      "Ġruns": 5851,
      "Ġdenotes": 5852,
      "urope": 5853,
      ".:": 5854,
      "ien": 5855,
      "Ġmix": 5856,
      "Ġcop": 5857,
      "Dep": 5858,
      "Ġdro": 5859,
      "Ġdefines": 5860,
      "Ġmechanism": 5861,
      "]\\": 5862,
      "inar": 5863,
      "Ġactivity": 5864,
      "ÂłÂłÂł": 5865,
      "Ġintervals": 5866,
      "Ġlaws": 5867,
      "Output": 5868,
      "ĠShe": 5869,
      "Ġproceed": 5870,
      "ynamic": 5871,
      "Source": 5872,
      "Ġsil": 5873,
      "Ġsqrt": 5874,
      "ĠSun": 5875,
      "brace": 5876,
      "Ġearlier": 5877,
      "'.": 5878,
      "Up": 5879,
      "ĠHar": 5880,
      "auge": 5881,
      "hline": 5882,
      "Ġanim": 5883,
      "Ġgover": 5884,
      "Enter": 5885,
      "onts": 5886,
      "cade": 5887,
      "gra": 5888,
      "Ġ42": 5889,
      "*(": 5890,
      "square": 5891,
      "Ġeff": 5892,
      "Ġanalytic": 5893,
      "Point": 5894,
      "Ġfront": 5895,
      "Ġvirt": 5896,
      "ĠInte": 5897,
      "These": 5898,
      "Ġhighest": 5899,
      "Ġbinomial": 5900,
      "asons": 5901,
      "Ġregions": 5902,
      "Ġflux": 5903,
      "Ġleg": 5904,
      "cide": 5905,
      "Ġfeet": 5906,
      "Exp": 5907,
      "groups": 5908,
      "lcome": 5909,
      "Ġsetup": 5910,
      "Ġtheorems": 5911,
      "Ġtells": 5912,
      "ĠInternational": 5913,
      "ilter": 5914,
      "Ġcool": 5915,
      "Ġinduction": 5916,
      "else": 5917,
      "Integ": 5918,
      "ĠIts": 5919,
      "Ġservice": 5920,
      "Ġdenoted": 5921,
      "itory": 5922,
      "ĠNa": 5923,
      "Ġresources": 5924,
      "########": 5925,
      "ãĢĤ": 5926,
      "Ġupdated": 5927,
      "ext": 5928,
      "oles": 5929,
      "Ġcylinder": 5930,
      "otopy": 5931,
      "Ġstatic": 5932,
      "bits": 5933,
      "Ġcohom": 5934,
      "possible": 5935,
      "base": 5936,
      "ĠSource": 5937,
      "zation": 5938,
      "Ġtrees": 5939,
      "Ġbatter": 5940,
      "atively": 5941,
      "ĠProve": 5942,
      "prod": 5943,
      "Ġ180": 5944,
      "ĠMaths": 5945,
      "Ġtransformations": 5946,
      "ĠEl": 5947,
      "case": 5948,
      "integ": 5949,
      "example": 5950,
      "selves": 5951,
      "ĠPress": 5952,
      "Ġpowers": 5953,
      "Explanation": 5954,
      "process": 5955,
      "Ġisomorphism": 5956,
      "ĠWill": 5957,
      "Ġcomplement": 5958,
      "gre": 5959,
      "ĠVis": 5960,
      "Posted": 5961,
      "Ġstand": 5962,
      "Ġtechnology": 5963,
      "aging": 5964,
      "Ġpreviously": 5965,
      "Ġ&\\": 5966,
      "Ġproofs": 5967,
      "Ġteacher": 5968,
      ";\\": 5969,
      "euclid": 5970,
      "otor": 5971,
      "ĠSign": 5972,
      "ĠEvery": 5973,
      "thesis": 5974,
      "Ġprecisely": 5975,
      "Ġreceived": 5976,
      "aa": 5977,
      "ĠBar": 5978,
      "Ġenable": 5979,
      "Ġintersect": 5980,
      "Ġpopular": 5981,
      "ĠEmeritus": 5982,
      "IV": 5983,
      "Published": 5984,
      "001": 5985,
      "Ġinstalled": 5986,
      "ĠGoogle": 5987,
      "ĠTechnology": 5988,
      "cancel": 5989,
      "Ġdrop": 5990,
      "ulations": 5991,
      "ologies": 5992,
      "Ġuniverse": 5993,
      "Ġidentical": 5994,
      "More": 5995,
      "ĠTable": 5996,
      "rief": 5997,
      "ras": 5998,
      "Ġlecture": 5999,
      "Ġspatial": 6000,
      "Ġconvention": 6001,
      "MR": 6002,
      "ĠRandom": 6003,
      "ĠControl": 6004,
      "[ÃĹ": 6005,
      "norm": 6006,
      "Ġreactions": 6007,
      "ĠInfo": 6008,
      "Ġpaths": 6009,
      "rrational": 6010,
      "Ġhealth": 6011,
      "Ġextend": 6012,
      "dar": 6013,
      "ĠAst": 6014,
      "Ġprobabilities": 6015,
      "Cur": 6016,
      "tu": 6017,
      "Ġbrack": 6018,
      "stood": 6019,
      "ĠProof": 6020,
      "Ġpeak": 6021,
      "ĠSolve": 6022,
      "Ġuniformly": 6023,
      "PDF": 6024,
      "Ġordinary": 6025,
      "scribed": 6026,
      "grad": 6027,
      "ker": 6028,
      "Ġhit": 6029,
      "Ġ::": 6030,
      "ĠCommun": 6031,
      ",$$": 6032,
      "Ġplatform": 6033,
      "ĠProm": 6034,
      "cape": 6035,
      "Ġoptional": 6036,
      "ĠRad": 6037,
      "att": 6038,
      "Ġteam": 6039,
      "Ġinterpretation": 6040,
      "Ġbrowser": 6041,
      "Ġminus": 6042,
      "ĠFormula": 6043,
      "Ġcapacity": 6044,
      "iny": 6045,
      "Ġrings": 6046,
      "Ġreson": 6047,
      "]$$": 6048,
      "Ġtheories": 6049,
      "ĠMSC": 6050,
      "abs": 6051,
      "Ġsums": 6052,
      "amera": 6053,
      "Ġ2000": 6054,
      "Ġcommonly": 6055,
      "Ġessentially": 6056,
      "ĠNumbers": 6057,
      "multi": 6058,
      "wer": 6059,
      "Ġpropag": 6060,
      "Does": 6061,
      "rist": 6062,
      "icense": 6063,
      "ounter": 6064,
      "Ġobjective": 6065,
      "Ġtransport": 6066,
      "ĠMechan": 6067,
      "?)": 6068,
      "Man": 6069,
      "Ġstd": 6070,
      "Ġchart": 6071,
      "2011": 6072,
      "Ġexplicitly": 6073,
      "BN": 6074,
      "Ġforum": 6075,
      "ĠRelevant": 6076,
      "Ġinvolves": 6077,
      "ĠChemistry": 6078,
      "ners": 6079,
      "ĠNOT": 6080,
      "Ġyields": 6081,
      "ki": 6082,
      "uge": 6083,
      "ica": 6084,
      "ĠUs": 6085,
      "Ġinduced": 6086,
      "Ġacceler": 6087,
      "Figure": 6088,
      "OW": 6089,
      "mar": 6090,
      "mann": 6091,
      "rant": 6092,
      "ĠFound": 6093,
      "Ġgeneration": 6094,
      "Ġsemi": 6095,
      "Mar": 6096,
      "atever": 6097,
      "pare": 6098,
      "Ġincorrect": 6099,
      "ĠOR": 6100,
      "forward": 6101,
      "Ġcapt": 6102,
      "Zbl": 6103,
      "å®": 6104,
      "inate": 6105,
      "Ġmus": 6106,
      "Ġamplitude": 6107,
      "Ġvi": 6108,
      "Ġleave": 6109,
      "Ġpert": 6110,
      "plication": 6111,
      "Ġstruct": 6112,
      "Ġdie": 6113,
      "Ġsuitable": 6114,
      "Ġinteractions": 6115,
      "ĠMach": 6116,
      "Ġ500": 6117,
      "Ġoverall": 6118,
      "Ġtypical": 6119,
      "Ġdrawing": 6120,
      "Ġpreser": 6121,
      "Ġprincipal": 6122,
      "Ġstream": 6123,
      "Ġconsum": 6124,
      "Ġcolle": 6125,
      "project": 6126,
      "Location": 6127,
      "ĠTrue": 6128,
      "Ġdetection": 6129,
      "Ġpatterns": 6130,
      "Ġmanifolds": 6131,
      "âĤ": 6132,
      "è®": 6133,
      "Ġì": 6134,
      "Ġunless": 6135,
      "Ġcentre": 6136,
      ")[": 6137,
      "\\$": 6138,
      "cket": 6139,
      "ogram": 6140,
      "Ġlearned": 6141,
      "Edit": 6142,
      "real": 6143,
      "ĠMain": 6144,
      "textrm": 6145,
      "poses": 6146,
      "orage": 6147,
      "ĠSyn": 6148,
      "Ġcharged": 6149,
      "Ġsquared": 6150,
      "Ġcharacteristics": 6151,
      "ĠMost": 6152,
      "Ġ39": 6153,
      "ĠLine": 6154,
      "ĠName": 6155,
      "newcommand": 6156,
      "Ġbroad": 6157,
      "\"\"": 6158,
      "300": 6159,
      "std": 6160,
      "ulated": 6161,
      "Ġpositions": 6162,
      "Ġ\\:": 6163,
      "Ġphys": 6164,
      "ĠSubject": 6165,
      "){": 6166,
      "Ġï": 6167,
      "Ġwind": 6168,
      "ĠBi": 6169,
      "ĠAND": 6170,
      "CS": 6171,
      "}/": 6172,
      "æķ": 6173,
      "osh": 6174,
      "ĠEuclidean": 6175,
      "ructure": 6176,
      "Ġcommit": 6177,
      "Ġparticularly": 6178,
      "Ġindicates": 6179,
      "Trans": 6180,
      "Ġreprodu": 6181,
      "Ġcompe": 6182,
      "Ġchance": 6183,
      "upport": 6184,
      "Ġlists": 6185,
      "Ġabelian": 6186,
      "ĠAD": 6187,
      "Ġsus": 6188,
      "library": 6189,
      "ĠComment": 6190,
      "Ġmodern": 6191,
      "Ġprograms": 6192,
      "Ġboard": 6193,
      ")}{\\": 6194,
      "IP": 6195,
      "Ġterminal": 6196,
      "ski": 6197,
      "fix": 6198,
      "Ġinfo": 6199,
      "ĠDE": 6200,
      "Ġshowed": 6201,
      "Ġsimplest": 6202,
      "[[": 6203,
      "hard": 6204,
      "ãĤ": 6205,
      "Ġcontained": 6206,
      "ĠClub": 6207,
      "Ver": 6208,
      "ni": 6209,
      "wiki": 6210,
      "Ġsave": 6211,
      "Ġpython": 6212,
      "Ġcubic": 6213,
      "NN": 6214,
      "Ġarri": 6215,
      "ENT": 6216,
      "Ġbehaviour": 6217,
      "IF": 6218,
      "void": 6219,
      "ĠCheck": 6220,
      "Ġjournal": 6221,
      "acob": 6222,
      "Ġcardinal": 6223,
      "ĠPoisson": 6224,
      "valued": 6225,
      "åħ": 6226,
      "Ġchallenge": 6227,
      "Ġradio": 6228,
      "ato": 6229,
      "Ġep": 6230,
      "ogen": 6231,
      "dr": 6232,
      "weight": 6233,
      "Ġfeedback": 6234,
      "ĠKe": 6235,
      "Text": 6236,
      "ĠOnline": 6237,
      "Ġconfidence": 6238,
      "Ġscientific": 6239,
      "Ġeffort": 6240,
      "related": 6241,
      "Ġfigures": 6242,
      "jecti": 6243,
      "atio": 6244,
      "Ġisol": 6245,
      "ĠAP": 6246,
      "Ġyourself": 6247,
      "Ġrough": 6248,
      "Ġzeros": 6249,
      "ĩĴ": 6250,
      "ĠNULL": 6251,
      "}}_{": 6252,
      "ronic": 6253,
      "Ġ..": 6254,
      "umb": 6255,
      "ĠNumer": 6256,
      "Ġnuclear": 6257,
      "mediately": 6258,
      "WE": 6259,
      "ä½": 6260,
      "Ġ75": 6261,
      "Ġ<<": 6262,
      "Ġtan": 6263,
      "Ġoptical": 6264,
      "ERT": 6265,
      "ength": 6266,
      "Ġrepeated": 6267,
      "Ġdocuments": 6268,
      "Ġreve": 6269,
      "Ġfrequencies": 6270,
      "Ġinvestigate": 6271,
      "Ġfo": 6272,
      "Ġthick": 6273,
      "ĠMean": 6274,
      "reducible": 6275,
      "ĠLu": 6276,
      "Ġsettings": 6277,
      "110": 6278,
      "ĠFinally": 6279,
      "ĠCho": 6280,
      "Ġindicate": 6281,
      "Ġneutron": 6282,
      "Ġcohomology": 6283,
      "çĶ": 6284,
      "ana": 6285,
      "start": 6286,
      "ĠMax": 6287,
      "Ġbutton": 6288,
      "ALSE": 6289,
      "artesian": 6290,
      "Ġrout": 6291,
      "ĠStart": 6292,
      "));": 6293,
      "MA": 6294,
      "while": 6295,
      "Ġplanet": 6296,
      "Ġtail": 6297,
      "ĠBayesian": 6298,
      "stra": 6299,
      "Ġsolar": 6300,
      "format": 6301,
      "Ġhyperbolic": 6302,
      "Ġ}_{": 6303,
      "ĠLess": 6304,
      "Ġlengths": 6305,
      "Ġtreatment": 6306,
      "Ġdise": 6307,
      "Ġspecifically": 6308,
      "ĠMoreover": 6309,
      "Ġwent": 6310,
      "Ġgames": 6311,
      "ĠBer": 6312,
      "Ġnormally": 6313,
      "Ġhack": 6314,
      "Ġbalance": 6315,
      "Keywords": 6316,
      "Ġequality": 6317,
      "Ġdecided": 6318,
      "sign": 6319,
      "entor": 6320,
      "black": 6321,
      "SSN": 6322,
      "\\:": 6323,
      "ĠAtt": 6324,
      "cons": 6325,
      "erson": 6326,
      "output": 6327,
      "arest": 6328,
      "Ġrepresenting": 6329,
      "Ġconstructed": 6330,
      "ĠHamiltonian": 6331,
      "Ġaud": 6332,
      "ĠPe": 6333,
      "ĠEven": 6334,
      "Ġ47": 6335,
      "Ġarrang": 6336,
      "akes": 6337,
      "ĠProcess": 6338,
      "Ġadjac": 6339,
      "Ġpuzz": 6340,
      "Ġweighted": 6341,
      "Ġprimary": 6342,
      "Ġâī¤": 6343,
      "uate": 6344,
      "Ġbey": 6345,
      "exists": 6346,
      "Ġspherical": 6347,
      "current": 6348,
      "ĠIntegral": 6349,
      "Ġuniversal": 6350,
      "bas": 6351,
      "Ġhomework": 6352,
      "ĠMac": 6353,
      "Ġassess": 6354,
      "Ġdifferentiable": 6355,
      "Ġdelay": 6356,
      "Ġquasi": 6357,
      "sup": 6358,
      "Ġspring": 6359,
      "Ġpan": 6360,
      "atures": 6361,
      "Ġgreen": 6362,
      "String": 6363,
      "Ġdelta": 6364,
      "Page": 6365,
      "Ġsaw": 6366,
      "Ġreasons": 6367,
      "ĠRead": 6368,
      "Ġeveryone": 6369,
      "Ġorbital": 6370,
      "boldsymbol": 6371,
      "Ġpull": 6372,
      "urs": 6373,
      "Ġshap": 6374,
      "Ġends": 6375,
      "Ġcongru": 6376,
      "diff": 6377,
      "Ġballs": 6378,
      "Code": 6379,
      "Jan": 6380,
      "Ġbeyond": 6381,
      "DA": 6382,
      "ba": 6383,
      "kay": 6384,
      "soft": 6385,
      "Ġunion": 6386,
      "ache": 6387,
      "Ġproperly": 6388,
      "Ġcone": 6389,
      "Ġregarding": 6390,
      "Ġpractical": 6391,
      "Write": 6392,
      "Ġasymptotic": 6393,
      "Ġgauge": 6394,
      "Ġuncertainty": 6395,
      "ĠDiscrete": 6396,
      "Two": 6397,
      "random": 6398,
      "Ġtasks": 6399,
      "Ġdefining": 6400,
      "blue": 6401,
      "Ġlocated": 6402,
      "Ġadvance": 6403,
      "picture": 6404,
      "writ": 6405,
      "Ġsurvey": 6406,
      "Comput": 6407,
      "structure": 6408,
      "Lo": 6409,
      "Ġstated": 6410,
      "Ġalpha": 6411,
      "Ġcompress": 6412,
      "Ġinequalities": 6413,
      "Ġdivisible": 6414,
      "ape": 6415,
      "cr": 6416,
      "Ġland": 6417,
      "Ġ38": 6418,
      ")$$,": 6419,
      "Ġmedium": 6420,
      "ued": 6421,
      "Ġtun": 6422,
      "Ġintroduction": 6423,
      "[#": 6424,
      "sample": 6425,
      "})^": 6426,
      "Ġlost": 6427,
      "brid": 6428,
      "aining": 6429,
      "Ġdr": 6430,
      "Ġinver": 6431,
      "ĠLib": 6432,
      "Ġ55": 6433,
      "Ġelectronic": 6434,
      "Ġcombined": 6435,
      "har": 6436,
      "Ġur": 6437,
      "Ġcoming": 6438,
      "Ġdevices": 6439,
      "ATION": 6440,
      "Ġcandid": 6441,
      "IL": 6442,
      "Ġcodes": 6443,
      "vin": 6444,
      "Ã¤": 6445,
      "Ġtend": 6446,
      "Ġdy": 6447,
      "Ġimmediately": 6448,
      "Ġnamely": 6449,
      "Ġpipe": 6450,
      "ĠFile": 6451,
      "Ġevidence": 6452,
      "Ġchildren": 6453,
      "OP": 6454,
      "bMATH": 6455,
      "Ġsine": 6456,
      "Ġhost": 6457,
      "Ġweeks": 6458,
      "Ġatmosp": 6459,
      "php": 6460,
      "Ġmatching": 6461,
      "Hint": 6462,
      "Return": 6463,
      "»¿": 6464,
      "Ġdark": 6465,
      "Ġmarks": 6466,
      "Ġcluster": 6467,
      "je": 6468,
      "requen": 6469,
      "ĠEvents": 6470,
      "}}=": 6471,
      "Ġgenerator": 6472,
      "ronom": 6473,
      "Next": 6474,
      "ĠSpring": 6475,
      "Ġconditional": 6476,
      "Ġmodules": 6477,
      "Ġschemes": 6478,
      "Ġremoved": 6479,
      "ancial": 6480,
      "oul": 6481,
      "ĠHall": 6482,
      "Ġsubmission": 6483,
      "DP": 6484,
      "every": 6485,
      "uchy": 6486,
      "è¯": 6487,
      "Ġdeterminant": 6488,
      "etch": 6489,
      "Ġrelease": 6490,
      "irr": 6491,
      "!\\": 6492,
      "double": 6493,
      "Ġaren": 6494,
      "Ġdense": 6495,
      "Ġsentence": 6496,
      "Ġcommutative": 6497,
      "Error": 6498,
      "ĠIS": 6499,
      "ĠLast": 6500,
      "Ġ---": 6501,
      "Ġquery": 6502,
      "ðŁ": 6503,
      "ĠTaylor": 6504,
      "Ġmanip": 6505,
      "180": 6506,
      "Proof": 6507,
      "Ġpresence": 6508,
      "ĠPaper": 6509,
      "Ġcipher": 6510,
      "aser": 6511,
      "Ġcompat": 6512,
      "Ġrefers": 6513,
      "post": 6514,
      "Ġions": 6515,
      "aching": 6516,
      "Ġengineering": 6517,
      "2000": 6518,
      "Public": 6519,
      "Ġsun": 6520,
      "ĠSample": 6521,
      "Ġsoon": 6522,
      "ĠRec": 6523,
      "apt": 6524,
      "ĠPat": 6525,
      "Ġinterpol": 6526,
      "Ġexception": 6527,
      "Ġmodeling": 6528,
      "ributes": 6529,
      "ullet": 6530,
      "ĠNormal": 6531,
      "Ġincome": 6532,
      "Ġexcel": 6533,
      "Ġpropose": 6534,
      "Ġfloat": 6535,
      "Ġforecast": 6536,
      "urable": 6537,
      "Ã³": 6538,
      "å¤": 6539,
      "ĠAccess": 6540,
      "ested": 6541,
      "Ġbeta": 6542,
      "Ġstrongly": 6543,
      "ĠSociety": 6544,
      "Ġdecrease": 6545,
      "ĠMethods": 6546,
      "Ġdemonstrate": 6547,
      "Ġclean": 6548,
      "ham": 6549,
      "lap": 6550,
      "otions": 6551,
      "vial": 6552,
      "Ġnor": 6553,
      "Ġhouse": 6554,
      "Ġindust": 6555,
      "Ġlogical": 6556,
      "Ġeigenvalue": 6557,
      "Fe": 6558,
      "Ġtax": 6559,
      "Ġirrational": 6560,
      "Ġexchange": 6561,
      "essor": 6562,
      "Article": 6563,
      "years": 6564,
      "Ġanswered": 6565,
      "ĠPi": 6566,
      "lop": 6567,
      "Ġexplore": 6568,
      "Ġindices": 6569,
      "ĠPlan": 6570,
      "Ġevaluation": 6571,
      "Ġrectangular": 6572,
      "ĠRelated": 6573,
      "âĭĬ": 6574,
      "Ġimpossible": 6575,
      "ATE": 6576,
      "Ġlisted": 6577,
      "Ġsimulations": 6578,
      "Ġ44": 6579,
      "}\\,": 6580,
      "Ġpassing": 6581,
      "ĠÏĢ": 6582,
      "Practice": 6583,
      "Ġdam": 6584,
      "ĠIndex": 6585,
      "bigg": 6586,
      "Ġlies": 6587,
      "Ġ300": 6588,
      "================": 6589,
      "ĠHTML": 6590,
      "='": 6591,
      "PA": 6592,
      "Rel": 6593,
      "Ġreplies": 6594,
      "ĠMag": 6595,
      "perim": 6596,
      ")=(": 6597,
      "Ġmultiplying": 6598,
      "aj": 6599,
      "Ġstudying": 6600,
      "ĠImage": 6601,
      "ĠCollege": 6602,
      "ĠAct": 6603,
      "questions": 6604,
      "Cre": 6605,
      "tz": 6606,
      "âĦ": 6607,
      "Ġprojective": 6608,
      "Ġprofile": 6609,
      "Ġstri": 6610,
      "Ġapplies": 6611,
      "Index": 6612,
      "Ġexecut": 6613,
      "Ġthesis": 6614,
      "plify": 6615,
      "coming": 6616,
      "cret": 6617,
      "Ġdont": 6618,
      "scr": 6619,
      "ĠMeasure": 6620,
      "ĠAnaly": 6621,
      "ĠTHE": 6622,
      "ĠHome": 6623,
      "Ġwants": 6624,
      "dif": 6625,
      "just": 6626,
      "Ġret": 6627,
      "Ġhash": 6628,
      "ĠChallenge": 6629,
      "Ġcountable": 6630,
      "mapsto": 6631,
      "car": 6632,
      "ĠMet": 6633,
      "Ġformation": 6634,
      "Ġkeys": 6635,
      "ĠCreate": 6636,
      "Ġparagraph": 6637,
      "Ġparticip": 6638,
      "Ġsimpler": 6639,
      "UM": 6640,
      "Ġproton": 6641,
      "undred": 6642,
      "Ġdistingu": 6643,
      "Ġbundle": 6644,
      "Sci": 6645,
      "font": 6646,
      "Ġnone": 6647,
      "Ġharmonic": 6648,
      "det": 6649,
      "txt": 6650,
      "Ġmultiplied": 6651,
      "Ġpolicy": 6652,
      "count": 6653,
      "ĠSw": 6654,
      "Ġcapacitor": 6655,
      "ufact": 6656,
      "ples": 6657,
      "ĠAdv": 6658,
      "pid": 6659,
      "Ġimplicit": 6660,
      "}}}$": 6661,
      "ĠÎ±": 6662,
      "Ġdigital": 6663,
      "ĠCalculator": 6664,
      "Ġcombinations": 6665,
      "Ġcollision": 6666,
      "Value": 6667,
      "itivity": 6668,
      "Ġwalk": 6669,
      "rian": 6670,
      "ĠNational": 6671,
      "Ġ+\\": 6672,
      "Ġsocial": 6673,
      "acing": 6674,
      "Acc": 6675,
      "ovel": 6676,
      "Ġmostly": 6677,
      "\\}": 6678,
      "ĠSpace": 6679,
      "ĠUnivers": 6680,
      "Homework": 6681,
      "Ġrestr": 6682,
      "force": 6683,
      "Ġremainder": 6684,
      "spe": 6685,
      "ĠMicro": 6686,
      "Ġcircles": 6687,
      "Ġunderstood": 6688,
      "Ġcauses": 6689,
      "[]": 6690,
      "rot": 6691,
      "ĠMarkov": 6692,
      "Ġstationary": 6693,
      "rating": 6694,
      "Ġoutcome": 6695,
      "exchange": 6696,
      "ategies": 6697,
      "Ġpossibly": 6698,
      "hic": 6699,
      "ãĥ": 6700,
      "Ġcovered": 6701,
      "Ġwouldn": 6702,
      "123": 6703,
      "Ġdirections": 6704,
      "Ġgeneric": 6705,
      "Ġrestriction": 6706,
      "roph": 6707,
      "urning": 6708,
      "Ġattention": 6709,
      "Ġsurpr": 6710,
      "Ġcarry": 6711,
      "Ġinfinitely": 6712,
      "Journal": 6713,
      "Ġdoub": 6714,
      "ĠAg": 6715,
      "Ġlikelihood": 6716,
      "ĠAssume": 6717,
      "ĠDetermine": 6718,
      "ceived": 6719,
      "2009": 6720,
      "Ġirreducible": 6721,
      "Ġgovern": 6722,
      "requency": 6723,
      "IB": 6724,
      "Ġmm": 6725,
      "Ġjour": 6726,
      "Ġlooked": 6727,
      "Ġstrictly": 6728,
      "Ġtalking": 6729,
      "Equ": 6730,
      "reads": 6731,
      "omb": 6732,
      "unc": 6733,
      "overflow": 6734,
      "Ġtechnical": 6735,
      "Ġpermutation": 6736,
      "SL": 6737,
      "ĠBan": 6738,
      "Ġ||": 6739,
      "Ġdest": 6740,
      "Ġdoll": 6741,
      "(),": 6742,
      "Ġdisplacement": 6743,
      "Ġisomorphic": 6744,
      "Ġresol": 6745,
      "ibration": 6746,
      "Ma": 6747,
      "rames": 6748,
      "Ġthank": 6749,
      "Ġcharges": 6750,
      "Ġspan": 6751,
      "valuate": 6752,
      "den": 6753,
      "mma": 6754,
      "anes": 6755,
      "ository": 6756,
      "roller": 6757,
      "ĠPromotions": 6758,
      "Ġ}$$": 6759,
      "Ġshad": 6760,
      "Ġimm": 6761,
      "UL": 6762,
      "nov": 6763,
      "system": 6764,
      "erator": 6765,
      "Ġsomewhat": 6766,
      "Ġhighlight": 6767,
      "Ġsignificantly": 6768,
      "Ġrandomly": 6769,
      "Ġbonds": 6770,
      "ĠBasic": 6771,
      "chron": 6772,
      "erman": 6773,
      "struction": 6774,
      "secutive": 6775,
      "Ġassignment": 6776,
      "rosc": 6777,
      "Ġ46": 6778,
      "Ġinteract": 6779,
      "Ġprojects": 6780,
      "Ġdrive": 6781,
      "pass": 6782,
      "ament": 6783,
      "ĠCould": 6784,
      "ĠHide": 6785,
      "ĠURL": 6786,
      "Ġelectrical": 6787,
      "icks": 6788,
      "tact": 6789,
      "Ġimply": 6790,
      "Ġsimplic": 6791,
      "ĠÎ¸": 6792,
      "ĠTRUE": 6793,
      "core": 6794,
      "ois": 6795,
      "Ġreverse": 6796,
      "image": 6797,
      "deg": 6798,
      "Ġrender": 6799,
      "Ġstage": 6800,
      "ĠAlthough": 6801,
      "ĠTransform": 6802,
      "]=": 6803,
      "db": 6804,
      "Ġneg": 6805,
      "Ġdetector": 6806,
      "Ġoutputs": 6807,
      ")}$$": 6808,
      "GMAT": 6809,
      "loss": 6810,
      "Ġhomogeneous": 6811,
      "Ġacting": 6812,
      "Ġmechanical": 6813,
      "Ġiner": 6814,
      "Ġ49": 6815,
      "udos": 6816,
      "Ġintensity": 6817,
      "iii": 6818,
      "********": 6819,
      "Ġmaintain": 6820,
      "Ġscattering": 6821,
      "Ġdip": 6822,
      "omas": 6823,
      "Ġprofit": 6824,
      "ĠDan": 6825,
      "plane": 6826,
      "ĠStates": 6827,
      "gt": 6828,
      "ached": 6829,
      "called": 6830,
      "Ġcertainly": 6831,
      "âĶĢâĶĢ": 6832,
      "fs": 6833,
      "Ġau": 6834,
      "Ġpen": 6835,
      "Ġlack": 6836,
      "ĠWorld": 6837,
      "Ġque": 6838,
      "120": 6839,
      "Ġconsisting": 6840,
      "Ġfairly": 6841,
      "ĠRs": 6842,
      "atell": 6843,
      "Ġ95": 6844,
      "Ġsorry": 6845,
      "oday": 6846,
      "Ġdistances": 6847,
      "Ġemit": 6848,
      "Ġreported": 6849,
      "Ġextremely": 6850,
      "Function": 6851,
      "QL": 6852,
      "ford": 6853,
      "uild": 6854,
      "roid": 6855,
      "Ġplain": 6856,
      "2008": 6857,
      "Ġlinked": 6858,
      "Ġnit": 6859,
      "Ġcanonical": 6860,
      "Ġroll": 6861,
      "Ġtranslation": 6862,
      "Ġrecursive": 6863,
      "Ġoxid": 6864,
      "true": 6865,
      "Ġactions": 6866,
      "Ġ((": 6867,
      "}}=\\": 6868,
      "mean": 6869,
      "Ac": 6870,
      "Graph": 6871,
      "ĠDown": 6872,
      "Ġclim": 6873,
      "ĠzbMATH": 6874,
      "augh": 6875,
      "Ġappreciate": 6876,
      "sy": 6877,
      "}%": 6878,
      "Ġbr": 6879,
      "ithub": 6880,
      "bered": 6881,
      "pirical": 6882,
      "ĠAnn": 6883,
      "Ġsuggested": 6884,
      "Ġfunctor": 6885,
      "Print": 6886,
      "therefore": 6887,
      "cat": 6888,
      "ĠFull": 6889,
      "}}^{": 6890,
      "Definition": 6891,
      "Ġimaginary": 6892,
      "åĲ": 6893,
      "ĠTake": 6894,
      "Ġwhatever": 6895,
      "Ġbranch": 6896,
      "\">": 6897,
      "Rem": 6898,
      "TH": 6899,
      "ĠMor": 6900,
      "ĠProduct": 6901,
      "Ġrecip": 6902,
      "ball": 6903,
      "ya": 6904,
      "Ġblo": 6905,
      "ĠSoc": 6906,
      "Ġsubspace": 6907,
      "Ġreasonable": 6908,
      "Ġseparated": 6909,
      "ĠProperties": 6910,
      "ĠAlex": 6911,
      "ĠOut": 6912,
      "Î±": 6913,
      "Ġsatisfying": 6914,
      "Ġwhereas": 6915,
      "ĠLike": 6916,
      ",\"": 6917,
      "Date": 6918,
      "Ġmar": 6919,
      "Ġdividing": 6920,
      "999": 6921,
      "ä»£": 6922,
      "doc": 6923,
      "efficient": 6924,
      "lat": 6925,
      "Ġspend": 6926,
      "Ġrobust": 6927,
      "Title": 6928,
      "dw": 6929,
      "Ġcred": 6930,
      "ĠMessage": 6931,
      "Ġcommunication": 6932,
      "van": 6933,
      "arter": 6934,
      "standing": 6935,
      "Chapter": 6936,
      "Ġrecon": 6937,
      "ĠFactor": 6938,
      "Ġplate": 6939,
      "atorial": 6940,
      "quire": 6941,
      "Ġfinally": 6942,
      "Ġestablish": 6943,
      "Ġestablis": 6944,
      "oting": 6945,
      "ĠApplied": 6946,
      "aff": 6947,
      "resentation": 6948,
      "Ġthemselves": 6949,
      "Ġgeneralization": 6950,
      "Ġdetermin": 6951,
      "âĪļ": 6952,
      "}}{{": 6953,
      "Ġske": 6954,
      "Ġ43": 6955,
      "Def": 6956,
      "Ġmixture": 6957,
      "Ġsizes": 6958,
      "Ġthin": 6959,
      "aster": 6960,
      "first": 6961,
      "Ġcancel": 6962,
      "aneous": 6963,
      "Description": 6964,
      "NG": 6965,
      "OD": 6966,
      "rations": 6967,
      "Ġsummary": 6968,
      "&\\": 6969,
      "Just": 6970,
      "ĠTrig": 6971,
      "ĠCH": 6972,
      "Ġobserve": 6973,
      "ĠLaplace": 6974,
      "ĠKeywords": 6975,
      ",...,": 6976,
      "Ġbill": 6977,
      "Ġhundred": 6978,
      "unk": 6979,
      "ĠDirect": 6980,
      "Ġreflect": 6981,
      "Ġcapital": 6982,
      "och": 6983,
      "edom": 6984,
      ")\\;": 6985,
      "ierarch": 6986,
      "Ġlatest": 6987,
      "ĠFurthermore": 6988,
      "ĠCM": 6989,
      "Ġshall": 6990,
      "Ġtrace": 6991,
      "FC": 6992,
      "ĠRed": 6993,
      "ĠDay": 6994,
      "ney": 6995,
      "Ġmanual": 6996,
      "\\,\\": 6997,
      "Ġplots": 6998,
      "Ġtex": 6999,
      "Test": 7000,
      "ĠYork": 7001,
      "Ġsomewhere": 7002,
      "ponent": 7003,
      "Ġassigned": 7004,
      "Model": 7005,
      "win": 7006,
      "Ġaware": 7007,
      "Ġbrief": 7008,
      "ĠThread": 7009,
      "Ġcaused": 7010,
      "equation": 7011,
      "Ġidentifier": 7012,
      "ao": 7013,
      "Ġ52": 7014,
      "Ġradical": 7015,
      "Ġreasoning": 7016,
      "ĠHelper": 7017,
      "ĠCauchy": 7018,
      "SD": 7019,
      "Top": 7020,
      "dig": 7021,
      "Ġ^{": 7022,
      "ĠRun": 7023,
      "Inter": 7024,
      "Ġexponents": 7025,
      ")+\\": 7026,
      "Go": 7027,
      "Spe": 7028,
      "Ġtold": 7029,
      "Ġjump": 7030,
      "Ġoperating": 7031,
      "Ġreturned": 7032,
      "Ġidentified": 7033,
      "Ġaccepted": 7034,
      "Ġpieces": 7035,
      "Ge": 7036,
      "fier": 7037,
      "Ġconverge": 7038,
      "Ġlabels": 7039,
      "mo": 7040,
      "Ġoffer": 7041,
      "Ġlie": 7042,
      "anging": 7043,
      "Ġflows": 7044,
      "Ġremain": 7045,
      "Ġreceive": 7046,
      "ĠLinux": 7047,
      "ĠAnother": 7048,
      "ĠMaybe": 7049,
      "Ġbusiness": 7050,
      "Ġ####": 7051,
      "Ġhot": 7052,
      "ĠBern": 7053,
      "calcul": 7054,
      "Ġfractional": 7055,
      "Ġcards": 7056,
      "Ġadvantage": 7057,
      "Ġtruth": 7058,
      "ĠMany": 7059,
      "kin": 7060,
      "ĠAR": 7061,
      "ĠFiles": 7062,
      "lent": 7063,
      "Ġcouldn": 7064,
      "Ġlinearly": 7065,
      "âī¤": 7066,
      "Ġpurch": 7067,
      "Ġmistake": 7068,
      "aps": 7069,
      "è¿": 7070,
      "ĠDocument": 7071,
      "ĠKar": 7072,
      "Ġpassed": 7073,
      "Ġencryption": 7074,
      "iver": 7075,
      "uum": 7076,
      "Ġtab": 7077,
      "ilation": 7078,
      "Ġcompile": 7079,
      "omorphisms": 7080,
      "module": 7081,
      "Plot": 7082,
      "EL": 7083,
      "ĠCos": 7084,
      "Ġ53": 7085,
      "avig": 7086,
      "center": 7087,
      "Ġestimator": 7088,
      "Ġinf": 7089,
      "ishing": 7090,
      "default": 7091,
      "Box": 7092,
      "tra": 7093,
      "Ġelectromagnetic": 7094,
      "Ġmessages": 7095,
      "Ġreferred": 7096,
      "SI": 7097,
      "Ġ}}": 7098,
      "ĠHas": 7099,
      "Ġcolors": 7100,
      "trivial": 7101,
      "Followers": 7102,
      "().": 7103,
      "Track": 7104,
      "miss": 7105,
      "nx": 7106,
      "Ġdedu": 7107,
      "Ġ()": 7108,
      "Ġappa": 7109,
      "Ġdiffer": 7110,
      "åĨ": 7111,
      "ĠTeV": 7112,
      "Ġ__": 7113,
      "umul": 7114,
      "ĠDon": 7115,
      "PR": 7116,
      "after": 7117,
      "fr": 7118,
      "oplus": 7119,
      "ĠTry": 7120,
      "Ġrapid": 7121,
      "Ġcosine": 7122,
      "bys": 7123,
      "opt": 7124,
      "isions": 7125,
      "Ġconsecutive": 7126,
      "Ġ101": 7127,
      "ĠPDE": 7128,
      "ĠMass": 7129,
      "Ġ41": 7130,
      "Ġintegrated": 7131,
      "ctic": 7132,
      "instein": 7133,
      "main": 7134,
      "Ġnotic": 7135,
      "Ġregul": 7136,
      "Ġshared": 7137,
      "Ġtheta": 7138,
      "Ġoutcomes": 7139,
      "Ġacts": 7140,
      "ypes": 7141,
      "Log": 7142,
      "Ġiteration": 7143,
      "ander": 7144,
      "Ġusage": 7145,
      "Ġobviously": 7146,
      "Ġeduc": 7147,
      "Ġpublication": 7148,
      "ĠStatement": 7149,
      "Ġstorage": 7150,
      "ivative": 7151,
      "ĠKB": 7152,
      "standard": 7153,
      "Ġwidely": 7154,
      "NO": 7155,
      "ĠProf": 7156,
      "}.$$": 7157,
      "Ġlayers": 7158,
      "Volume": 7159,
      "Custom": 7160,
      "itations": 7161,
      "Ġcyclic": 7162,
      "Ġcoupling": 7163,
      "Am": 7164,
      "Jun": 7165,
      "herent": 7166,
      "inf": 7167,
      "Ġchoices": 7168,
      "Ġimproved": 7169,
      "Ġinfluence": 7170,
      "[-": 7171,
      "static": 7172,
      "paper": 7173,
      "ordinate": 7174,
      "ĠBen": 7175,
      "Ġrise": 7176,
      "EEE": 7177,
      "rangian": 7178,
      "Ġbattery": 7179,
      "atus": 7180,
      "orter": 7181,
      "Ġlive": 7182,
      "ĠJe": 7183,
      "Algebra": 7184,
      "Ġanalyze": 7185,
      "iral": 7186,
      "pmod": 7187,
      "Ġneutral": 7188,
      "EST": 7189,
      "Ġnovel": 7190,
      "Ġbuy": 7191,
      "Ġgamma": 7192,
      "ĠStack": 7193,
      "Ġexhib": 7194,
      "Home": 7195,
      "des": 7196,
      "ĠChen": 7197,
      "ĠDr": 7198,
      "ounting": 7199,
      "jects": 7200,
      "ĠContents": 7201,
      "Ġscaling": 7202,
      "Ġessential": 7203,
      "stackexchange": 7204,
      "Ġlen": 7205,
      "Ġlowest": 7206,
      "Ġhomotopy": 7207,
      "months": 7208,
      "Ġcontrast": 7209,
      "Ġmol": 7210,
      "Ġconclude": 7211,
      "ĠDC": 7212,
      "reek": 7213,
      "define": 7214,
      "Option": 7215,
      "overy": 7216,
      "rab": 7217,
      "ĠCD": 7218,
      "ĠDistribution": 7219,
      "^{-\\": 7220,
      "sole": 7221,
      "Ġminute": 7222,
      "Ġaxes": 7223,
      "stackrel": 7224,
      "})\\": 7225,
      "ĠPractice": 7226,
      "formal": 7227,
      "Ġcreates": 7228,
      "Ġcloser": 7229,
      "cluding": 7230,
      "Feb": 7231,
      "such": 7232,
      "ĠEurope": 7233,
      "Ġinstr": 7234,
      "Ġintended": 7235,
      "ĠProgramming": 7236,
      "Ġheavy": 7237,
      "Over": 7238,
      "Ġprices": 7239,
      "ĠWed": 7240,
      "Ġverify": 7241,
      "Ġadjacent": 7242,
      "ilos": 7243,
      "Ġtraject": 7244,
      "Ġtradition": 7245,
      "!)": 7246,
      "CR": 7247,
      "ceedings": 7248,
      "ĠCurrent": 7249,
      "LaTeX": 7250,
      "Ġperturb": 7251,
      "Vector": 7252,
      "Ð¾": 7253,
      "Ġresistor": 7254,
      "ÃŃ": 7255,
      "Ġpublis": 7256,
      "ĠLemma": 7257,
      "Ġresear": 7258,
      "\\;\\;": 7259,
      "Ġbigger": 7260,
      "arized": 7261,
      "Ġmeasuring": 7262,
      "Ġreplaced": 7263,
      "neg": 7264,
      "Ġ2003": 7265,
      "Ġpossibility": 7266,
      "Ġsupports": 7267,
      "ĠPaul": 7268,
      "fy": 7269,
      "ĠPrice": 7270,
      "ĠBack": 7271,
      "ĠÎĶ": 7272,
      "braries": 7273,
      "Ġellipse": 7274,
      "vectors": 7275,
      "rial": 7276,
      "artin": 7277,
      "Ġcollected": 7278,
      ".(": 7279,
      "Ġgap": 7280,
      "Ġcontents": 7281,
      "Ġpowerful": 7282,
      "uan": 7283,
      "Ġ}^{": 7284,
      "ĠMc": 7285,
      "Ġmanagement": 7286,
      "Ġconservation": 7287,
      "png": 7288,
      "ĠTem": 7289,
      "ĠOption": 7290,
      "ĠUnited": 7291,
      "âĢĶâĢĶ": 7292,
      "Ġneighbor": 7293,
      "cut": 7294,
      "ĠEstim": 7295,
      "odium": 7296,
      "Ġmasses": 7297,
      "Ġdescribing": 7298,
      "Ġmoles": 7299,
      "TC": 7300,
      "cong": 7301,
      "fold": 7302,
      "Ġbra": 7303,
      "Ġdecide": 7304,
      "Ġshif": 7305,
      "Ġ54": 7306,
      "Ġmodes": 7307,
      "Ġemission": 7308,
      "EDIT": 7309,
      "Ġdisplayed": 7310,
      "\"?": 7311,
      "Ġfi": 7312,
      "Ġresidual": 7313,
      "Ġevaluated": 7314,
      "ourses": 7315,
      "Ġdiffusion": 7316,
      "Ġtrigonometric": 7317,
      "600": 7318,
      "rem": 7319,
      "Ġvoid": 7320,
      "Ġdevelo": 7321,
      "Ġjus": 7322,
      "Ġmanufact": 7323,
      "ficulty": 7324,
      "/-": 7325,
      "rich": 7326,
      "heet": 7327,
      "Ġdev": 7328,
      "oidal": 7329,
      "Ġrequirements": 7330,
      "OK": 7331,
      "chem": 7332,
      "hi": 7333,
      "æĺ": 7334,
      "till": 7335,
      "Ġxy": 7336,
      "ĠOP": 7337,
      "pared": 7338,
      "Mark": 7339,
      "za": 7340,
      "Ġten": 7341,
      "only": 7342,
      "%.": 7343,
      "MP": 7344,
      "bre": 7345,
      "mi": 7346,
      "{#": 7347,
      "oms": 7348,
      "Ġnearest": 7349,
      "Ġlove": 7350,
      "Ġinstant": 7351,
      "ĠBanach": 7352,
      "Oct": 7353,
      "ĠMater": 7354,
      "Ġleaves": 7355,
      "essions": 7356,
      "{{{": 7357,
      "ĠInstead": 7358,
      "hbar": 7359,
      "ĠSuper": 7360,
      "rend": 7361,
      "Ġneither": 7362,
      "2007": 7363,
      "Ġdirected": 7364,
      "Ġaspects": 7365,
      "Ġvirtual": 7366,
      "Ġmotor": 7367,
      "ĠBC": 7368,
      "Ġinsight": 7369,
      "Ġprivate": 7370,
      "Ġnearly": 7371,
      "ĠGuide": 7372,
      "Ġconjugate": 7373,
      "Ġisot": 7374,
      "ĠFalse": 7375,
      "ibliography": 7376,
      "ko": 7377,
      "some": 7378,
      "Ġmirr": 7379,
      "Ġsched": 7380,
      "Ġannual": 7381,
      "Ġpredictions": 7382,
      "Ġconvolution": 7383,
      "Ġdiscovered": 7384,
      "Ġpresentation": 7385,
      "Ġsuggests": 7386,
      "\";": 7387,
      "rocal": 7388,
      "arities": 7389,
      "Matrix": 7390,
      "Parameters": 7391,
      "Ġer": 7392,
      "Ġri": 7393,
      "ĠWord": 7394,
      "Ġbytes": 7395,
      "Ġreli": 7396,
      "Ġscales": 7397,
      "|^": 7398,
      "Ġmesh": 7399,
      "stream": 7400,
      "ĠCitation": 7401,
      "Ġstrategies": 7402,
      "Ġsubstitute": 7403,
      "Ġfactorization": 7404,
      "Ġcapture": 7405,
      "æķ°": 7406,
      "CF": 7407,
      "Ġbrain": 7408,
      "oses": 7409,
      "ĠWeb": 7410,
      "Ġ62": 7411,
      "Ġratios": 7412,
      "Ġfilled": 7413,
      "Ġdc": 7414,
      "orean": 7415,
      "Ġchlor": 7416,
      "ĠConst": 7417,
      "Ġpasses": 7418,
      "Ġcombine": 7419,
      "Free": 7420,
      "Vert": 7421,
      "rely": 7422,
      "ĠHi": 7423,
      "Ġnews": 7424,
      "Ġexpert": 7425,
      "ĠDesign": 7426,
      ".\\": 7427,
      "pite": 7428,
      "Ġben": 7429,
      "Ġmu": 7430,
      "img": 7431,
      "Ġprevent": 7432,
      "Ġstatus": 7433,
      "relation": 7434,
      "variate": 7435,
      "ĠStudy": 7436,
      "Ġtorque": 7437,
      "Ġdisease": 7438,
      "True": 7439,
      "Work": 7440,
      "itors": 7441,
      "star": 7442,
      "ellow": 7443,
      "Ġformulation": 7444,
      "ussion": 7445,
      "metry": 7446,
      "While": 7447,
      "Ġinstructions": 7448,
      "Ġpolygon": 7449,
      "))$": 7450,
      "theses": 7451,
      "Ġmodulo": 7452,
      "%%%%%%%%": 7453,
      "Out": 7454,
      "eties": 7455,
      "ĠStr": 7456,
      "Ġreply": 7457,
      "Ġdecreasing": 7458,
      "GB": 7459,
      "Ġrating": 7460,
      "Ġ56": 7461,
      "tikzpicture": 7462,
      "ĠSE": 7463,
      "ĠSa": 7464,
      "Ġresid": 7465,
      "ictionary": 7466,
      "Ġvehic": 7467,
      "hematically": 7468,
      "oto": 7469,
      "Ġexceed": 7470,
      "ĠMichael": 7471,
      "ffer": 7472,
      "Ġconverted": 7473,
      "Ġflex": 7474,
      "ĠSuch": 7475,
      "ĠFR": 7476,
      "Ġalone": 7477,
      "ĠVal": 7478,
      "Ġ99": 7479,
      "greg": 7480,
      "Ġrevers": 7481,
      "Ġproviding": 7482,
      "ACT": 7483,
      "Ġutility": 7484,
      "400": 7485,
      "Di": 7486,
      "arp": 7487,
      "ille": 7488,
      "Ġparalle": 7489,
      "Ġfourth": 7490,
      "Ġperfectly": 7491,
      "Ġpredicted": 7492,
      "ked": 7493,
      "split": 7494,
      "Ġaw": 7495,
      "Ġln": 7496,
      "ĠUser": 7497,
      "Ġimagine": 7498,
      "ĠDetailed": 7499,
      "Ġestablished": 7500,
      "-)": 7501,
      "Ab": 7502,
      "band": 7503,
      "mass": 7504,
      "Ġfuel": 7505,
      "ĠIde": 7506,
      "Ġimportance": 7507,
      "Ġmarked": 7508,
      "Ġgreatly": 7509,
      "plotlib": 7510,
      "chers": 7511,
      "Ġfriend": 7512,
      "ares": 7513,
      "vy": 7514,
      "Ġfood": 7515,
      "ĠJacob": 7516,
      "Ġtermin": 7517,
      "ĠConference": 7518,
      "cepted": 7519,
      "Ġsurround": 7520,
      "obile": 7521,
      "Ġplayers": 7522,
      "Ġprimitive": 7523,
      "Dec": 7524,
      "Ġult": 7525,
      "Ġlibraries": 7526,
      "Line": 7527,
      "block": 7528,
      "cot": 7529,
      "dist": 7530,
      "Ġcru": 7531,
      "antit": 7532,
      "Ġsubse": 7533,
      "Ġgenerates": 7534,
      "Ġfreedom": 7535,
      "ĠContinuous": 7536,
      "ĠSimple": 7537,
      "Ġkinds": 7538,
      "ĠGauss": 7539,
      "vo": 7540,
      "ĠCy": 7541,
      "Ġadapt": 7542,
      "Ġwhenever": 7543,
      "ĠStructure": 7544,
      "\",\"": 7545,
      "Ġderivation": 7546,
      "Ġintuition": 7547,
      "Total": 7548,
      "Ġcamera": 7549,
      "llig": 7550,
      "agon": 7551,
      "cope": 7552,
      "Entering": 7553,
      "]$.": 7554,
      "ĠAPI": 7555,
      "Ġexport": 7556,
      "Ġsear": 7557,
      "Ġenh": 7558,
      "Ġabs": 7559,
      "ximum": 7560,
      "Ġstructural": 7561,
      "[(": 7562,
      "va": 7563,
      "Ġiff": 7564,
      "Ġvisible": 7565,
      "Ġcounting": 7566,
      "ĠSolving": 7567,
      "agger": 7568,
      "typ": 7569,
      "aq": 7570,
      "cti": 7571,
      "ĠSD": 7572,
      "phab": 7573,
      "Ġmainly": 7574,
      "bib": 7575,
      "Ġsatell": 7576,
      "ĠFri": 7577,
      "ferenti": 7578,
      "Ġouter": 7579,
      "ĠMachine": 7580,
      "taining": 7581,
      "titude": 7582,
      "Ġdealing": 7583,
      "cf": 7584,
      "ĠExercise": 7585,
      "Search": 7586,
      "Ġportion": 7587,
      "Ġrid": 7588,
      "Ġenerg": 7589,
      "Ġsho": 7590,
      "Ġbases": 7591,
      "Ġposter": 7592,
      "since": 7593,
      "Ġfinitely": 7594,
      "Ġnoticed": 7595,
      "vity": 7596,
      "ĠOh": 7597,
      "Ġopin": 7598,
      "choose": 7599,
      "ĠImport": 7600,
      "}.$": 7601,
      "%,": 7602,
      "Part": 7603,
      "{.": 7604,
      "åĬ": 7605,
      "Ġfib": 7606,
      "2022": 7607,
      "cepts": 7608,
      "Ġemer": 7609,
      "Program": 7610,
      "Ġtempor": 7611,
      "semble": 7612,
      "Ġbring": 7613,
      "Ġconstit": 7614,
      "sert": 7615,
      "Ġproving": 7616,
      "Ġspread": 7617,
      "Ġmonot": 7618,
      "TS": 7619,
      "Ġsav": 7620,
      "Ġsigma": 7621,
      "ĠNP": 7622,
      "ythag": 7623,
      "Aug": 7624,
      "Mon": 7625,
      "ati": 7626,
      "deed": 7627,
      "ĠCR": 7628,
      "irth": 7629,
      "Ġ[?": 7630,
      "Ġedition": 7631,
      "Ġheader": 7632,
      "Kudos": 7633,
      "Ġtags": 7634,
      "oded": 7635,
      "}$-": 7636,
      "pected": 7637,
      "encies": 7638,
      "ĠPublications": 7639,
      "Ġscenario": 7640,
      "\");": 7641,
      "km": 7642,
      "enior": 7643,
      "Ġfinancial": 7644,
      "Ġseparation": 7645,
      "ĠTotal": 7646,
      "ivari": 7647,
      "Ġagre": 7648,
      "Ġ**": 7649,
      "ĠResults": 7650,
      "Ġchemistry": 7651,
      "ĠÂłÂł": 7652,
      "Ġ57": 7653,
      "rick": 7654,
      "Ġcycles": 7655,
      "Ġcalls": 7656,
      "ropic": 7657,
      "Ġsecure": 7658,
      "mode": 7659,
      "alog": 7660,
      "Ġthous": 7661,
      "Ġinterior": 7662,
      "Ġmodify": 7663,
      "Ġneutr": 7664,
      "MC": 7665,
      "Ġce": 7666,
      "root": 7667,
      ").$$": 7668,
      "Ġdependence": 7669,
      "Ġspectra": 7670,
      "Ġdiagrams": 7671,
      "Ġeconomic": 7672,
      "ĠFerm": 7673,
      "mathscr": 7674,
      "Ġembedded": 7675,
      "Add": 7676,
      "fol": 7677,
      "Ġhidden": 7678,
      "angles": 7679,
      "Ġdiscre": 7680,
      "ametric": 7681,
      "Ġbias": 7682,
      "ativistic": 7683,
      "rep": 7684,
      "arc": 7685,
      "Ġ400": 7686,
      "256": 7687,
      "ĠArg": 7688,
      "ĠUSA": 7689,
      "Ġintuitive": 7690,
      "Sp": 7691,
      "igital": 7692,
      "vergence": 7693,
      "vities": 7694,
      "ĠPolynomial": 7695,
      "Ġglass": 7696,
      "Ġ[?]:": 7697,
      "Authors": 7698,
      "IST": 7699,
      "Ġcorner": 7700,
      "ĠString": 7701,
      "ebook": 7702,
      "ĠShould": 7703,
      "ĠHiggs": 7704,
      "Check": 7705,
      "dl": 7706,
      "Ġreads": 7707,
      "ĠFALSE": 7708,
      "oder": 7709,
      "Ġtriple": 7710,
      "uzzy": 7711,
      "RR": 7712,
      "Ġ68": 7713,
      "Ġ>>": 7714,
      "Ġbelie": 7715,
      "Ġtit": 7716,
      "leg": 7717,
      "tia": 7718,
      "ĠBased": 7719,
      "Ġplant": 7720,
      "neti": 7721,
      "ĠCombin": 7722,
      "Ġpersonal": 7723,
      "Ġdynamical": 7724,
      "Ġthermod": 7725,
      "($": 7726,
      "LAB": 7727,
      "LAS": 7728,
      "Ġthrow": 7729,
      "ĠDOI": 7730,
      "lob": 7731,
      "Ġminor": 7732,
      "ĠAccording": 7733,
      "ĠSpringer": 7734,
      "hell": 7735,
      "Ġsessions": 7736,
      "Ġbank": 7737,
      "ĠSk": 7738,
      "ĠPR": 7739,
      "plete": 7740,
      "Ġlens": 7741,
      "Ġtested": 7742,
      "ĠAlgebraic": 7743,
      "FA": 7744,
      "Tags": 7745,
      "\\%": 7746,
      "Ġcategor": 7747,
      "also": 7748,
      "ĠOnly": 7749,
      "Ġstatistic": 7750,
      "aboratory": 7751,
      "Ġdelete": 7752,
      "FS": 7753,
      "onometry": 7754,
      "Ġbatch": 7755,
      "Ġkil": 7756,
      "ĠHu": 7757,
      "ometer": 7758,
      "Ġeventually": 7759,
      "Ġaffine": 7760,
      "DB": 7761,
      "Table": 7762,
      "Ġter": 7763,
      "ĠOS": 7764,
      "nother": 7765,
      "Ġgreatest": 7766,
      "Ġdifferentiation": 7767,
      "Ġcovariance": 7768,
      "Ð°": 7769,
      "Ġfold": 7770,
      "iring": 7771,
      "ĠLook": 7772,
      "Ġperimeter": 7773,
      "Ġachieved": 7774,
      "wikipedia": 7775,
      "âŁ": 7776,
      "Ġhol": 7777,
      "Ġtrade": 7778,
      "Ġmedian": 7779,
      "pgf": 7780,
      "Gold": 7781,
      "Rep": 7782,
      "break": 7783,
      "Ġbos": 7784,
      "agonal": 7785,
      "Ġknows": 7786,
      "Ġheld": 7787,
      "Ġarrays": 7788,
      "Ġsubscribed": 7789,
      "Cor": 7790,
      "rase": 7791,
      "ĠAv": 7792,
      "url": 7793,
      "Ġsomehow": 7794,
      "Ġ150": 7795,
      "Difficulty": 7796,
      "/.": 7797,
      "Another": 7798,
      "HT": 7799,
      "Ġmeta": 7800,
      "Theta": 7801,
      "dinger": 7802,
      "Ġchecked": 7803,
      "irected": 7804,
      "ĠCenter": 7805,
      "Ġmorphism": 7806,
      "({\\": 7807,
      "âĨĴ": 7808,
      "Ġwiki": 7809,
      "ĠSpect": 7810,
      "ĠMake": 7811,
      "mathsf": 7812,
      "fication": 7813,
      "ĠÎ»": 7814,
      "Ġsuggestions": 7815,
      "triangle": 7816,
      "Because": 7817,
      "Ġfavor": 7818,
      "Ġshapes": 7819,
      "Ġpush": 7820,
      ")\\\\": 7821,
      "Ġexpectation": 7822,
      "Ġsheet": 7823,
      "SV": 7824,
      "nn": 7825,
      "when": 7826,
      "thon": 7827,
      "Ġ51": 7828,
      "Ġnonzero": 7829,
      "Ġrepository": 7830,
      "Ġpurposes": 7831,
      "ĠArchive": 7832,
      "Ġvacuum": 7833,
      "Each": 7834,
      "height": 7835,
      "ĠDraw": 7836,
      "udes": 7837,
      "Ġcompounds": 7838,
      "ĠOnce": 7839,
      "Ġscores": 7840,
      "Ġdecreases": 7841,
      "Ġcircumference": 7842,
      "UP": 7843,
      "Î»": 7844,
      "ĠPH": 7845,
      "vironments": 7846,
      "ä¹": 7847,
      "hev": 7848,
      "Ġconcrete": 7849,
      "ĠNC": 7850,
      "Ġtemplate": 7851,
      "ĠModels": 7852,
      "Ġarchit": 7853,
      "bc": 7854,
      "Ġmedia": 7855,
      "Ġtransmission": 7856,
      "150": 7857,
      "Ġsimplified": 7858,
      "condition": 7859,
      "apor": 7860,
      "error": 7861,
      "Ġempirical": 7862,
      "ĠPhysical": 7863,
      "Ġmaths": 7864,
      "Ġmovement": 7865,
      "University": 7866,
      "Ġcovering": 7867,
      "olfram": 7868,
      "DC": 7869,
      "Ġtet": 7870,
      "ĠBet": 7871,
      "rene": 7872,
      "Ġanywhere": 7873,
      "Ġsafe": 7874,
      "Ġmargin": 7875,
      "Ġlaser": 7876,
      "abil": 7877,
      "Ġmanner": 7878,
      "logram": 7879,
      "Ġsituations": 7880,
      "Ġmoved": 7881,
      "Ġbrackets": 7882,
      "MO": 7883,
      "sch": 7884,
      "Ġæ": 7885,
      "ĠDel": 7886,
      "Ġsecret": 7887,
      "Ġnumpy": 7888,
      "1111": 7889,
      "Ġnucleus": 7890,
      "Summary": 7891,
      "ĠNumerical": 7892,
      "ĠODE": 7893,
      "125": 7894,
      "Ġintern": 7895,
      "Ġagent": 7896,
      "dat": 7897,
      "Ġna": 7898,
      "finity": 7899,
      "}},": 7900,
      "Ġintermediate": 7901,
      "Size": 7902,
      "zen": 7903,
      "Ġft": 7904,
      "Ġinference": 7905,
      "Ġhex": 7906,
      "Ġguys": 7907,
      "Ġinvolve": 7908,
      "Ġoccup": 7909,
      "&=": 7910,
      "EC": 7911,
      "Ðµ": 7912,
      "column": 7913,
      "Ġfailure": 7914,
      "Ġtriangular": 7915,
      "hot": 7916,
      "np": 7917,
      "Ġ($\\": 7918,
      "ender": 7919,
      "variant": 7920,
      "AGS": 7921,
      "Ġconvenient": 7922,
      "Ġenergies": 7923,
      "_,": 7924,
      "pages": 7925,
      "vable": 7926,
      "âĩĴ": 7927,
      "ĠWould": 7928,
      "ounce": 7929,
      "Ġcurren": 7930,
      "series": 7931,
      "Ġblood": 7932,
      "RA": 7933,
      "ĠTerm": 7934,
      "ores": 7935,
      "dec": 7936,
      "ĠRight": 7937,
      "Ġlemma": 7938,
      "Document": 7939,
      "Ġcer": 7940,
      "ĠStaff": 7941,
      "urity": 7942,
      "elf": 7943,
      "Ġwasn": 7944,
      "Ġ63": 7945,
      "foot": 7946,
      "topic": 7947,
      "Ġhuge": 7948,
      "Ġanyway": 7949,
      "Ġgenerators": 7950,
      "onday": 7951,
      "ART": 7952,
      "functions": 7953,
      "Ġindividuals": 7954,
      "PM": 7955,
      "{}": 7956,
      "essel": 7957,
      "ultim": 7958,
      "ĠFA": 7959,
      "ĠFund": 7960,
      "cker": 7961,
      "paren": 7962,
      "ynamical": 7963,
      "ĠStatistical": 7964,
      "names": 7965,
      "Ã¨": 7966,
      "ĠMC": 7967,
      "Ġprepar": 7968,
      "Ġcovers": 7969,
      "ĠAddition": 7970,
      "ĠEditor": 7971,
      "pload": 7972,
      "ĠRob": 7973,
      "Ġ$$-": 7974,
      "olecular": 7975,
      "Answ": 7976,
      "ĠFinding": 7977,
      "Ġdomains": 7978,
      "Ġpublications": 7979,
      "Ġduplicate": 7980,
      "Ġvote": 7981,
      "Ġdivides": 7982,
      "eady": 7983,
      "Ġhardware": 7984,
      "js": 7985,
      "Ġtot": 7986,
      "ĠSu": 7987,
      "Ġpole": 7988,
      "Ġanalys": 7989,
      "ĠInternet": 7990,
      "Ġcylind": 7991,
      "ĠHard": 7992,
      "Ġmanually": 7993,
      "manifold": 7994,
      "Ġmodulus": 7995,
      "Ġpixel": 7996,
      "Pays": 7997,
      "bullet": 7998,
      "fi": 7999,
      "inger": 8000,
      "ĠSO": 8001,
      "amily": 8002,
      ")\\,": 8003,
      "ðĿĻ": 8004,
      "ĠPapers": 8005,
      "Customized": 8006,
      "LO": 8007,
      "Ġmiles": 8008,
      "Ġgate": 8009,
      "Ġtemperatures": 8010,
      "Ġsurv": 8011,
      "ficial": 8012,
      "ĠPrevious": 8013,
      "Ax": 8014,
      "Ġturb": 8015,
      "ĠAust": 8016,
      "istent": 8017,
      "000000": 8018,
      "Ġmetrics": 8019,
      "Ġaxioms": 8020,
      "[\"": 8021,
      "dens": 8022,
      "Ð¸": 8023,
      "orous": 8024,
      "orrow": 8025,
      "ĠSI": 8026,
      "Ġstraightforward": 8027,
      "Similar": 8028,
      "ĠExpress": 8029,
      "ĠLagrangian": 8030,
      "Ġviol": 8031,
      ":$": 8032,
      "two": 8033,
      "Ġentirely": 8034,
      "ĠDetails": 8035,
      "ç§": 8036,
      "éĩ": 8037,
      "ĠFl": 8038,
      "Ġclient": 8039,
      "because": 8040,
      "Ġshortest": 8041,
      "Ġrevision": 8042,
      "dated": 8043,
      "got": 8044,
      "nos": 8045,
      "ĠSy": 8046,
      "Ġperspective": 8047,
      "Ġboxes": 8048,
      "Ġcriterion": 8049,
      "NP": 8050,
      "ĠBal": 8051,
      "Ġsell": 8052,
      "duplicate": 8053,
      "comput": 8054,
      "apping": 8055,
      "ĠĠĠĠĠĠĠĠĠ": 8056,
      "Ġsummation": 8057,
      "Ġcollabor": 8058,
      "Department": 8059,
      "$;": 8060,
      "Ġsigns": 8061,
      "commended": 8062,
      "Ġdipole": 8063,
      "Ġsold": 8064,
      "ulf": 8065,
      "Ġcircuits": 8066,
      "hedron": 8067,
      "clusive": 8068,
      "ĠClassification": 8069,
      "](": 8070,
      "Ġframes": 8071,
      "Ġwelcome": 8072,
      "Ġseeing": 8073,
      "According": 8074,
      "]^": 8075,
      "åĽ": 8076,
      "Ġlots": 8077,
      "second": 8078,
      "ĠRam": 8079,
      "Image": 8080,
      "Ġcriteria": 8081,
      "Book": 8082,
      "åľ": 8083,
      "Ġeye": 8084,
      "oments": 8085,
      "irich": 8086,
      "Ġreser": 8087,
      "Ġdetermining": 8088,
      "ĠNews": 8089,
      "\\{\\": 8090,
      "Ġeq": 8091,
      "vee": 8092,
      "ĠarXiv": 8093,
      "ffice": 8094,
      "Ġcalling": 8095,
      "Ġinches": 8096,
      ",âĢĿ": 8097,
      "ratic": 8098,
      "Ġ(\"": 8099,
      "Ġstay": 8100,
      "Ġstory": 8101,
      "ĠBa": 8102,
      "heric": 8103,
      "ĠPlot": 8104,
      "aturally": 8105,
      "Ġsubstance": 8106,
      "ĠCharacter": 8107,
      "Look": 8108,
      "tw": 8109,
      "aste": 8110,
      "ĠFoundation": 8111,
      "bur": 8112,
      "inding": 8113,
      "anged": 8114,
      "Inst": 8115,
      "ĠUnit": 8116,
      ")))": 8117,
      "ĠSelect": 8118,
      "Ġrigid": 8119,
      "abilities": 8120,
      "9999": 8121,
      "Ġmonitor": 8122,
      "irichlet": 8123,
      "Psi": 8124,
      "ias": 8125,
      "pred": 8126,
      "ĠVersion": 8127,
      "ĠMonte": 8128,
      "Ġcrystal": 8129,
      ".-": 8130,
      "oom": 8131,
      "Ġhierarch": 8132,
      "ĠSl": 8133,
      "quis": 8134,
      "Ġsector": 8135,
      "Ġvarieties": 8136,
      "Ġ72": 8137,
      "oxide": 8138,
      "Ġpatients": 8139,
      "ĠSolved": 8140,
      "Ġmeasurable": 8141,
      "Ġjournals": 8142,
      "<=": 8143,
      "rÃ¶": 8144,
      "wave": 8145,
      "ĠâĦ": 8146,
      "2006": 8147,
      "stituting": 8148,
      "init": 8149,
      "ulum": 8150,
      "Ġparametric": 8151,
      "Ġcontributions": 8152,
      "~\\": 8153,
      "ĠAL": 8154,
      "plan": 8155,
      "Ġled": 8156,
      "Ġamounts": 8157,
      "ĠCommon": 8158,
      "Start": 8159,
      "SciNet": 8160,
      "card": 8161,
      "ctan": 8162,
      "han": 8163,
      "Ġsparse": 8164,
      "asma": 8165,
      "ril": 8166,
      "ĠLHC": 8167,
      "ought": 8168,
      "Ġcontinued": 8169,
      "ĠVisual": 8170,
      "Ġtotally": 8171,
      "rehen": 8172,
      "oman": 8173,
      "Ġ66": 8174,
      "Ġdiscont": 8175,
      "Ġcollect": 8176,
      "Ġnumeric": 8177,
      "ĠInteger": 8178,
      "vised": 8179,
      "ita": 8180,
      "oura": 8181,
      "ĠHom": 8182,
      "ĠThree": 8183,
      "Ġcontinuity": 8184,
      "Ġpresents": 8185,
      "Array": 8186,
      "Ġconnections": 8187,
      "Ġorders": 8188,
      "bly": 8189,
      "tian": 8190,
      "ening": 8191,
      "alysis": 8192,
      "Ġdeli": 8193,
      "exe": 8194,
      "ĠÎ¼": 8195,
      "ĠAppl": 8196,
      "Ġrotating": 8197,
      "Ġsession": 8198,
      "Ġeight": 8199,
      "Ġsty": 8200,
      "ĠCrypt": 8201,
      "ĠBob": 8202,
      "ĠElement": 8203,
      "energy": 8204,
      "Ġspent": 8205,
      "Ġinitially": 8206,
      "Ġwheel": 8207,
      "Ġbroken": 8208,
      "Ġorientation": 8209,
      "ĠBrown": 8210,
      "odies": 8211,
      "phas": 8212,
      "iest": 8213,
      "shop": 8214,
      "Ġencoding": 8215,
      "Ġfails": 8216,
      "ĠIndia": 8217,
      "Ġmarginal": 8218,
      "Ġinvestment": 8219,
      "(*": 8220,
      "\\}$$": 8221,
      "look": 8222,
      "ĠExcel": 8223,
      "Ġflag": 8224,
      "Ġoffset": 8225,
      "Ġinsert": 8226,
      "antitative": 8227,
      "David": 8228,
      "mn": 8229,
      "Ġaver": 8230,
      "osity": 8231,
      "Ġexplan": 8232,
      "Ġmassive": 8233,
      "Calculate": 8234,
      "men": 8235,
      "rins": 8236,
      "Ġrewrite": 8237,
      "ĠPri": 8238,
      "}{{": 8239,
      "Ġ$${\\": 8240,
      "}$)": 8241,
      "Ġpoor": 8242,
      "Ġequally": 8243,
      "pendence": 8244,
      "Ġthroughout": 8245,
      "':": 8246,
      "CA": 8247,
      "rank": 8248,
      "æĹ": 8249,
      "actic": 8250,
      "Ġlogistic": 8251,
      "Ġdetermines": 8252,
      "Ġfloating": 8253,
      "ĠMechanics": 8254,
      "bx": 8255,
      "dagger": 8256,
      "ĠIII": 8257,
      "Ġvar": 8258,
      "ĠMA": 8259,
      "Ġalphab": 8260,
      "Ġresist": 8261,
      "Ġstrange": 8262,
      "Ġextensions": 8263,
      "Share": 8264,
      "ĠBoard": 8265,
      "ua": 8266,
      "Ġbin": 8267,
      "ĠMem": 8268,
      "ĠDem": 8269,
      "Ġchrom": 8270,
      "ellar": 8271,
      "Ġhybrid": 8272,
      "Bas": 8273,
      "Ġjo": 8274,
      "Ġsubgroups": 8275,
      "ponential": 8276,
      "product": 8277,
      "Ġseman": 8278,
      "Ġhomology": 8279,
      "Ġpseudo": 8280,
      "Ġreciprocal": 8281,
      "Ġtu": 8282,
      "rob": 8283,
      "stud": 8284,
      "Ġrear": 8285,
      "ilateral": 8286,
      "Ġseed": 8287,
      "Ġuns": 8288,
      "aptive": 8289,
      "Ġconfusing": 8290,
      "Ġ&=&": 8291,
      "Try": 8292,
      "Ġtank": 8293,
      "Ġdraft": 8294,
      "),(": 8295,
      "Read": 8296,
      "Ġsegments": 8297,
      "Ġexcellent": 8298,
      "'=": 8299,
      "Div": 8300,
      "sq": 8301,
      "ros": 8302,
      "Ġnavig": 8303,
      "ĠLong": 8304,
      "Ġ59": 8305,
      "ĠRecent": 8306,
      "Ġcomprehen": 8307,
      "Ġopportun": 8308,
      "Ġsignificance": 8309,
      "imum": 8310,
      "Us": 8311,
      "Ġwatch": 8312,
      "Ġlambda": 8313,
      "Ġ=$": 8314,
      "Ġnotebook": 8315,
      "}}(": 8316,
      "Ġ...,": 8317,
      "MSC": 8318,
      "dor": 8319,
      "ires": 8320,
      "journal": 8321,
      "à¦": 8322,
      "iders": 8323,
      "ĠStats": 8324,
      "Ġmodular": 8325,
      "Ġputting": 8326,
      "Ġillustrate": 8327,
      "ĠLesson": 8328,
      "Jul": 8329,
      "check": 8330,
      "hold": 8331,
      "Ġhistor": 8332,
      "Ġgold": 8333,
      "ulse": 8334,
      "ilinear": 8335,
      "istence": 8336,
      "ĠEdu": 8337,
      "flu": 8338,
      "Ġembedding": 8339,
      "ĠOtherwise": 8340,
      "}}$.": 8341,
      "cted": 8342,
      "Ġreached": 8343,
      "ĠPeter": 8344,
      "Ġsequen": 8345,
      "othing": 8346,
      "Ġ58": 8347,
      "ĠOrder": 8348,
      "Ġconclusion": 8349,
      "ĠMATLAB": 8350,
      "Ġphenomenon": 8351,
      "BO": 8352,
      "Citation": 8353,
      "['": 8354,
      "Ġcoding": 8355,
      "ĠGL": 8356,
      "Ġappe": 8357,
      "åĨĻ": 8358,
      "Ġmes": 8359,
      "amin": 8360,
      "ĠWang": 8361,
      "ĠEX": 8362,
      ".....": 8363,
      "rench": 8364,
      "ĠâĪļ": 8365,
      "*\\": 8366,
      "aci": 8367,
      "eral": 8368,
      "Ġlate": 8369,
      "Ġproposition": 8370,
      "Ġ67": 8371,
      "Prove": 8372,
      "Ġphotons": 8373,
      "Ġcoupled": 8374,
      "Ġpermutations": 8375,
      "Ġtick": 8376,
      "$$(": 8377,
      "Ġmodification": 8378,
      "alendar": 8379,
      "ĠâĪĪ": 8380,
      "tivated": 8381,
      "Ġcarried": 8382,
      "Ġskills": 8383,
      "ĠPrim": 8384,
      "Examples": 8385,
      "Ġdefinitely": 8386,
      "Sch": 8387,
      "ĠSpecific": 8388,
      "ilit": 8389,
      "ĠInverse": 8390,
      "Ġmatches": 8391,
      "Ġconvergent": 8392,
      "Ġmagnet": 8393,
      "Ġdatasets": 8394,
      "Ext": 8395,
      "FI": 8396,
      "edit": 8397,
      "Ġ2002": 8398,
      "Ġinvent": 8399,
      "Ġfloor": 8400,
      "ĠLogic": 8401,
      "Ġconductor": 8402,
      "ĠLibrary": 8403,
      "Ġapart": 8404,
      "unit": 8405,
      "ĠLore": 8406,
      "Ġcontract": 8407,
      "Ġray": 8408,
      "Ġgraphics": 8409,
      ")^{-": 8410,
      "PO": 8411,
      "try": 8412,
      "ÎĶ": 8413,
      "rex": 8414,
      "atility": 8415,
      "Ġampl": 8416,
      "ĠApproxim": 8417,
      "asy": 8418,
      "ĠArt": 8419,
      "ĠSupport": 8420,
      "ĠPy": 8421,
      "Ġranges": 8422,
      "pez": 8423,
      "Ġheard": 8424,
      "Ġpaid": 8425,
      "Ġparent": 8426,
      "Ġshouldn": 8427,
      "Ġrealized": 8428,
      "Ġdiscrim": 8429,
      "Ġhomomorphism": 8430,
      "Ġclosure": 8431,
      "volume": 8432,
      "Ġconcerned": 8433,
      "ultic": 8434,
      "ĠMentor": 8435,
      "ĠHave": 8436,
      "Ġenvironments": 8437,
      "feed": 8438,
      "nings": 8439,
      "Ġmachines": 8440,
      "Ġspacing": 8441,
      "|=": 8442,
      "chapter": 8443,
      "rupt": 8444,
      "Ġchoosing": 8445,
      "Mathematics": 8446,
      "ilosoph": 8447,
      "Av": 8448,
      "Nov": 8449,
      "itial": 8450,
      "Ġspl": 8451,
      "ĠAcade": 8452,
      "dev": 8453,
      "tach": 8454,
      "quired": 8455,
      "Ġlesson": 8456,
      "Ġreflection": 8457,
      "Ġencrypt": 8458,
      "ĠLimit": 8459,
      "Car": 8460,
      "GM": 8461,
      "hfill": 8462,
      "orpor": 8463,
      "Ġfaces": 8464,
      "ĠAuthors": 8465,
      "ĠPet": 8466,
      "Ġsup": 8467,
      "Ġfunctionality": 8468,
      "Ġqual": 8469,
      "Ġnumbered": 8470,
      "Ġcomposite": 8471,
      "ĠShort": 8472,
      "Ġreduces": 8473,
      "Ġinvestigated": 8474,
      "icode": 8475,
      "Ġformer": 8476,
      "Ġ81": 8477,
      "ambridge": 8478,
      "References": 8479,
      "ĠScienti": 8480,
      "Our": 8481,
      "rained": 8482,
      "Ġexplains": 8483,
      "|$": 8484,
      "Ġtens": 8485,
      "Ġsensor": 8486,
      "ĠSV": 8487,
      "ĠSquare": 8488,
      "Ġcook": 8489,
      "ĠExpert": 8490,
      "Ġapplicable": 8491,
      "Publication": 8492,
      "Vari": 8493,
      "tot": 8494,
      "world": 8495,
      "reat": 8496,
      "Ġnan": 8497,
      "ada": 8498,
      "ĠJoined": 8499,
      "Ġunlike": 8500,
      "ERN": 8501,
      "Ġtreated": 8502,
      "Ġorbitals": 8503,
      "ĠAbout": 8504,
      "ĠInterest": 8505,
      "squ": 8506,
      "Ġpin": 8507,
      "Ġvaries": 8508,
      "âĪŀ": 8509,
      "Ġrecall": 8510,
      "Ġperiods": 8511,
      "ĠComputational": 8512,
      "Ġcomparing": 8513,
      "spaces": 8514,
      "Ġbur": 8515,
      "colon": 8516,
      "minist": 8517,
      "ĠObject": 8518,
      "ĠObser": 8519,
      "Ġroughly": 8520,
      "Min": 8521,
      "lements": 8522,
      "ĠCartesian": 8523,
      "agram": 8524,
      "Ġsignature": 8525,
      "Ġchecking": 8526,
      "ĠCarlo": 8527,
      "=-\\": 8528,
      "Bl": 8529,
      "ĠDist": 8530,
      ",\\,": 8531,
      "Ġstick": 8532,
      "Dan": 8533,
      "px": 8534,
      "sb": 8535,
      "Ġcof": 8536,
      "stat": 8537,
      "imits": 8538,
      "ĠQuad": 8539,
      "Ġcountry": 8540,
      "ĠGreen": 8541,
      "ĠDefine": 8542,
      "Ġconsumption": 8543,
      "overs": 8544,
      "Ġwal": 8545,
      "ĠPack": 8546,
      "ĠGrad": 8547,
      "=\\{": 8548,
      "Ġallowing": 8549,
      "Ġoffers": 8550,
      "Ġasympto": 8551,
      "Ġphenomena": 8552,
      "Study": 8553,
      "UD": 8554,
      "Ġiron": 8555,
      "Ġok": 8556,
      "Ġwait": 8557,
      "Ġhop": 8558,
      "Ġasks": 8559,
      "ĠWeight": 8560,
      "Ġheter": 8561,
      "ĠChange": 8562,
      "auti": 8563,
      "Ġresponses": 8564,
      "Ġincorpor": 8565,
      "Ġsufficiently": 8566,
      "Mo": 8567,
      "ishes": 8568,
      "Ġmor": 8569,
      "Ġcomposed": 8570,
      "oids": 8571,
      "ivalent": 8572,
      "ĠRegression": 8573,
      "ĠNonlinear": 8574,
      "Ġfriends": 8575,
      "nesday": 8576,
      "adic": 8577,
      "Ġadditive": 8578,
      "Ġideals": 8579,
      "riday": 8580,
      "ABC": 8581,
      "ĠExplain": 8582,
      "ĠJavaScript": 8583,
      "Ġgalaxies": 8584,
      "112": 8585,
      "EG": 8586,
      "Ġdisjoint": 8587,
      "Ġ|\\": 8588,
      "ibilities": 8589,
      "@@": 8590,
      "Elect": 8591,
      "Id": 8592,
      "pag": 8593,
      "Ġsounds": 8594,
      "ĠTw": 8595,
      "Ġvariations": 8596,
      "Ġservices": 8597,
      "2005": 8598,
      "ĠPrin": 8599,
      "~~~~~~~~": 8600,
      "Ġinvertible": 8601,
      "Related": 8602,
      "ned": 8603,
      "Ġstands": 8604,
      "Ġexercises": 8605,
      "yset": 8606,
      "ĠBoolean": 8607,
      "ĠðŁ": 8608,
      "Ġsteady": 8609,
      "ĠFollow": 8610,
      "ival": 8611,
      "Ġmirror": 8612,
      "']": 8613,
      "ales": 8614,
      "tivities": 8615,
      "Ġinjective": 8616,
      "Ġforget": 8617,
      "bles": 8618,
      "inese": 8619,
      "ĠComputing": 8620,
      "ï¼ļ": 8621,
      "regular": 8622,
      "folio": 8623,
      "Back": 8624,
      "Take": 8625,
      "Ġfonts": 8626,
      "Ġbright": 8627,
      "Ġdrag": 8628,
      "ĠAI": 8629,
      "ĠCON": 8630,
      "Ġlets": 8631,
      "find": 8632,
      "Ġfinish": 8633,
      "Ġlocations": 8634,
      "Comm": 8635,
      "Ġseparately": 8636,
      "Ġparentheses": 8637,
      "Ġdoubt": 8638,
      "Ġnight": 8639,
      "Ġexcess": 8640,
      "eline": 8641,
      "Ġeverywhere": 8642,
      "erring": 8643,
      "Ġcentered": 8644,
      "ĠâĪĻ": 8645,
      "Ġindicated": 8646,
      "allenges": 8647,
      "Ġdifficulty": 8648,
      "ĠLink": 8649,
      "Ġconfusion": 8650,
      "2003": 8651,
      "Ġcounts": 8652,
      "ĠÂłĠÂłĠÂłĠÂłĠÂłĠÂłĠÂłĠÂł": 8653,
      "ĠViews": 8654,
      "Ġoxidation": 8655,
      "RS": 8656,
      "specific": 8657,
      "arm": 8658,
      "Ġassumes": 8659,
      "uesday": 8660,
      "Ġinstances": 8661,
      "Assume": 8662,
      ")),": 8663,
      "ĠSec": 8664,
      "ago": 8665,
      "$$)": 8666,
      "ades": 8667,
      "Ġ$$|": 8668,
      "ĠElectric": 8669,
      "ĠSpecial": 8670,
      "Ġpuzzle": 8671,
      "]{\\": 8672,
      "osph": 8673,
      "ĠEconom": 8674,
      "ĠVideo": 8675,
      "ĠChris": 8676,
      "Ġrotate": 8677,
      "Ġfamous": 8678,
      "Ġclosely": 8679,
      "Ġdifferentiate": 8680,
      "Ġdamage": 8681,
      "Pol": 8682,
      "System": 8683,
      "Ġ....": 8684,
      "ĠEinstein": 8685,
      "pair": 8686,
      "Ġrelativity": 8687,
      "Ġcomputers": 8688,
      "Ġcontrolled": 8689,
      "ĠOptimization": 8690,
      "Ġrestricted": 8691,
      "byshev": 8692,
      "even": 8693,
      "Ġ____": 8694,
      "ĠPot": 8695,
      "Ġknowing": 8696,
      "mathoverflow": 8697,
      "cities": 8698,
      "atorics": 8699,
      "Ġcorrection": 8700,
      "Ġposting": 8701,
      "Ġcontainer": 8702,
      "organ": 8703,
      "Ġtraditional": 8704,
      "Ġneighborhood": 8705,
      ")_": 8706,
      "eah": 8707,
      "arti": 8708,
      "loor": 8709,
      "Ġaggreg": 8710,
      "Ġrespons": 8711,
      "Ġinstallation": 8712,
      "ĠSimilarly": 8713,
      "TP": 8714,
      "TAGS": 8715,
      "Â±": 8716,
      "inem": 8717,
      "Ġwindows": 8718,
      "ĠTH": 8719,
      "Ġquote": 8720,
      "Ġboot": 8721,
      "Ġbalanced": 8722,
      ")_{": 8723,
      "Method": 8724,
      "Ġfirm": 8725,
      "utative": 8726,
      "uristic": 8727,
      "ĠGold": 8728,
      "Ġrod": 8729,
      "$),": 8730,
      "Ġ)$": 8731,
      "Ĥ¹": 8732,
      "ĠPythag": 8733,
      "Ġpreview": 8734,
      "clip": 8735,
      "Ġcompan": 8736,
      "textit": 8737,
      "boxed": 8738,
      "trie": 8739,
      "ĠCommunic": 8740,
      "?\"": 8741,
      "Na": 8742,
      "ui": 8743,
      "ĠAS": 8744,
      "imals": 8745,
      "unders": 8746,
      "alent": 8747,
      "Ġspectrosc": 8748,
      "floor": 8749,
      "dir": 8750,
      "xiv": 8751,
      "ĠDistance": 8752,
      "ĠDynamical": 8753,
      "Ġloops": 8754,
      "Ġoverview": 8755,
      "Ġfamil": 8756,
      "Ġinterpreted": 8757,
      "Ġparallelogram": 8758,
      ")\"": 8759,
      "360": 8760,
      "Spec": 8761,
      "Ã¢": 8762,
      "Ġinform": 8763,
      "Ġtoward": 8764,
      "ĠAp": 8765,
      "tools": 8766,
      "Ġphysic": 8767,
      "Lab": 8768,
      "MM": 8769,
      "Ġblow": 8770,
      "Ġ\\|": 8771,
      "kel": 8772,
      "Ġsoft": 8773,
      "ĠColl": 8774,
      "sembly": 8775,
      "Ġpublish": 8776,
      "ĠMS": 8777,
      "Ġpartially": 8778,
      "Ġ74": 8779,
      "ĠUnfortunately": 8780,
      "anned": 8781,
      "Ġremote": 8782,
      "ĠÂłĠÂłĠÂł": 8783,
      "Left": 8784,
      "Ġclarify": 8785,
      "Ġmixing": 8786,
      "Returns": 8787,
      "Ġopinion": 8788,
      "cite": 8789,
      "Ġbis": 8790,
      "edance": 8791,
      "cean": 8792,
      "ements": 8793,
      "Ġknot": 8794,
      "ilistic": 8795,
      "ĠHerm": 8796,
      "Ġ+=": 8797,
      "endix": 8798,
      "Theorem": 8799,
      "acc": 8800,
      "Ġcentury": 8801,
      "Ġauto": 8802,
      "Ġclusters": 8803,
      "Ġultra": 8804,
      "Other": 8805,
      "RT": 8806,
      "Ser": 8807,
      "Ġoct": 8808,
      "Ġbon": 8809,
      "Ġconcer": 8810,
      "ĠHz": 8811,
      "Ġ$${": 8812,
      "atern": 8813,
      "Answer": 8814,
      "\"]": 8815,
      "Node": 8816,
      "Ġcr": 8817,
      "Ġdaily": 8818,
      "Ġinteractive": 8819,
      "2001": 8820,
      "Ġidentities": 8821,
      "Ġeigenvectors": 8822,
      "Ġturned": 8823,
      "tification": 8824,
      "John": 8825,
      "Ġsodium": 8826,
      "Ġanom": 8827,
      "Ġdeath": 8828,
      "}{-": 8829,
      "ĠLy": 8830,
      "Ġrelax": 8831,
      "Ġ[[": 8832,
      "underline": 8833,
      "ĠExperim": 8834,
      "shift": 8835,
      "ĠReport": 8836,
      "slant": 8837,
      "Ġï»¿": 8838,
      "800": 8839,
      "Sym": 8840,
      "dv": 8841,
      "}:": 8842,
      "Ġmoments": 8843,
      "Ġholes": 8844,
      "ĠAltern": 8845,
      "ĠChrist": 8846,
      "ĠÃ¢": 8847,
      "Apr": 8848,
      "category": 8849,
      "Ġice": 8850,
      "_{-\\": 8851,
      "ĠInc": 8852,
      "Ġjet": 8853,
      "Ġmenu": 8854,
      "Ġlayout": 8855,
      "mers": 8856,
      "Ġnaturally": 8857,
      "ĠCB": 8858,
      "ĠGood": 8859,
      ").$": 8860,
      "enses": 8861,
      "Ġplaying": 8862,
      "escrib": 8863,
      "Ġintegrating": 8864,
      "Ġignore": 8865,
      "Ġfailed": 8866,
      "Ġtouch": 8867,
      "Ġprob": 8868,
      "ĠCore": 8869,
      "Ġtrial": 8870,
      "AND": 8871,
      "option": 8872,
      "arr": 8873,
      "chain": 8874,
      "Ġstret": 8875,
      "ĠDu": 8876,
      "ĠOK": 8877,
      "Ġmeter": 8878,
      "symmetric": 8879,
      "ĠReviews": 8880,
      "NS": 8881,
      "_]": 8882,
      "Ġoil": 8883,
      "Ġlumin": 8884,
      "ĠClick": 8885,
      "ĠEuclid": 8886,
      "Ġdecays": 8887,
      "Ġchannels": 8888,
      "Op": 8889,
      "ĠTensor": 8890,
      "Ġconse": 8891,
      "ĠSpec": 8892,
      "thanks": 8893,
      "Ġdiss": 8894,
      "Ġdegener": 8895,
      "ĠFields": 8896,
      "Ġisolated": 8897,
      "Max": 8898,
      "Py": 8899,
      "hol": 8900,
      "Ġmolar": 8901,
      ")+(": 8902,
      "Ġrecommended": 8903,
      "ursday": 8904,
      "hm": 8905,
      "æĪ": 8906,
      "heres": 8907,
      "Ġcash": 8908,
      "Ġhon": 8909,
      "Ġconsequence": 8910,
      "ems": 8911,
      "ĠDirichlet": 8912,
      "config": 8913,
      "128": 8914,
      "Ġcompiler": 8915,
      "Ġspot": 8916,
      "2004": 8917,
      "Ġhappy": 8918,
      "Ġfitting": 8919,
      "Ca": 8920,
      "Map": 8921,
      "ĠIV": 8922,
      "}}+": 8923,
      "Ġsimilarity": 8924,
      "Ġsimulate": 8925,
      "Ġdivisor": 8926,
      "Ġfamilies": 8927,
      "Ġbold": 8928,
      "umes": 8929,
      "ĠBound": 8930,
      "Ġequip": 8931,
      "Ġtransverse": 8932,
      "cyc": 8933,
      "Ġspecification": 8934,
      "ntz": 8935,
      "Research": 8936,
      "Ġgrams": 8937,
      "Ġ$=$": 8938,
      "ĠZhang": 8939,
      "LA": 8940,
      "OV": 8941,
      "RI": 8942,
      "iam": 8943,
      "sv": 8944,
      "Ġtends": 8945,
      "une": 8946,
      "ria": 8947,
      "Ġ365": 8948,
      "Ġfilters": 8949,
      "Ġprotein": 8950,
      "ĠGalois": 8951,
      "Create": 8952,
      "tor": 8953,
      "ĠAx": 8954,
      "Ġ[#": 8955,
      "ifications": 8956,
      "Ġnormalized": 8957,
      "Second": 8958,
      "ĠTopology": 8959,
      "Ġgovernment": 8960,
      "ä»£åĨĻ": 8961,
      "iy": 8962,
      "isot": 8963,
      "ĠCA": 8964,
      "ĠLeg": 8965,
      "Ġvariant": 8966,
      "Ġrelationships": 8967,
      "Ġoverlap": 8968,
      "Ġscan": 8969,
      "Ġsales": 8970,
      "Ġmultiplicative": 8971,
      "Ġrequirement": 8972,
      "Long": 8973,
      "bat": 8974,
      "Ġec": 8975,
      "Ġvotes": 8976,
      "Ġparty": 8977,
      "ensities": 8978,
      "Ġpaint": 8979,
      "clusion": 8980,
      "Ġattribute": 8981,
      "tify": 8982,
      "çĶ¨": 8983,
      ")-\\": 8984,
      "dri": 8985,
      "Ġmeth": 8986,
      "ĠTor": 8987,
      "Ġseven": 8988,
      "Ġraw": 8989,
      "Ġmetals": 8990,
      "roduct": 8991,
      "Ġattach": 8992,
      "graphics": 8993,
      "Ġexecution": 8994,
      "rogen": 8995,
      "They": 8996,
      "Ġparad": 8997,
      "emptyset": 8998,
      "},{": 8999,
      "Ġformatting": 9000,
      "tificial": 9001,
      "ĠBlack": 9002,
      "'\\": 9003,
      "Like": 9004,
      "pat": 9005,
      "rates": 9006,
      "ĠISSN": 9007,
      "ĠCalendar": 9008,
      "Ġjoin": 9009,
      "ributor": 9010,
      "Ġencoun": 9011,
      "ĠÏĥ": 9012,
      "Ġrepeat": 9013,
      "Ġlogarithmic": 9014,
      "Ġthickness": 9015,
      "\"_": 9016,
      "Â»": 9017,
      "íķ": 9018,
      "Ġslic": 9019,
      "Ġstabil": 9020,
      "ductor": 9021,
      "vention": 9022,
      "Ġminimize": 9023,
      "intercept": 9024,
      "Ġreplacement": 9025,
      "ĠATLAS": 9026,
      "ura": 9027,
      "$$?": 9028,
      "ĠFOR": 9029,
      "_{-": 9030,
      "loc": 9031,
      "Ġdispl": 9032,
      "Ġunitary": 9033,
      "complex": 9034,
      "ĠPoints": 9035,
      "Ġcandidate": 9036,
      "fun": 9037,
      "ih": 9038,
      "water": 9039,
      "ĠRich": 9040,
      "ĠDat": 9041,
      "Ġcompleted": 9042,
      "Ġunity": 9043,
      "Ġoriginally": 9044,
      "Ġfluct": 9045,
      "Ġeffectively": 9046,
      "ĠLatest": 9047,
      "Ġcompetition": 9048,
      "Ġposterior": 9049,
      "CP": 9050,
      "Ġtight": 9051,
      "Ġtension": 9052,
      "istogram": 9053,
      "ĠLarge": 9054,
      "Ġqueries": 9055,
      "Ġcomputes": 9056,
      "Ġrealize": 9057,
      "Ġadvice": 9058,
      "Ġclimate": 9059,
      "Gu": 9060,
      "su": 9061,
      "itance": 9062,
      "urt": 9063,
      "ĠReturn": 9064,
      "ĠBro": 9065,
      "Ġasym": 9066,
      "ulty": 9067,
      "),\\": 9068,
      "theory": 9069,
      "Ġ76": 9070,
      "hedral": 9071,
      "Ġproven": 9072,
      "Ġcomputations": 9073,
      "Ġ>=": 9074,
      "argin": 9075,
      "Ġprinciples": 9076,
      "Ġbelongs": 9077,
      "ĠEuropean": 9078,
      "Po": 9079,
      "Sorry": 9080,
      "Ġsn": 9081,
      "Ġfire": 9082,
      "Ġmic": 9083,
      "ĠUsage": 9084,
      "Ġmathematically": 9085,
      "ĠSoftware": 9086,
      "Ġthoughts": 9087,
      "iodic": 9088,
      "Ġtransforms": 9089,
      "ĠCompute": 9090,
      "Ġsynthe": 9091,
      "End": 9092,
      "ðĿĳ": 9093,
      "æĺ¯": 9094,
      "rec": 9095,
      "ĠSin": 9096,
      "ĠGR": 9097,
      "Ġinternet": 9098,
      "Ġfinds": 9099,
      "INT": 9100,
      "Ġabsolutely": 9101,
      "Ġexecute": 9102,
      "Ġabsorption": 9103,
      "ĠSingle": 9104,
      "=>": 9105,
      "eled": 9106,
      "ĠTherm": 9107,
      "umann": 9108,
      "Ġprotons": 9109,
      "Ġevol": 9110,
      "Ġcurious": 9111,
      "object": 9112,
      "Ġperforming": 9113,
      "white": 9114,
      "Ġskew": 9115,
      "Ġresearchers": 9116,
      "]}": 9117,
      "counter": 9118,
      "github": 9119,
      "oulli": 9120,
      "Ġeth": 9121,
      "ĠRate": 9122,
      "hentic": 9123,
      "ears": 9124,
      "Ġmagic": 9125,
      "ĠRiemannian": 9126,
      "Ġsuspect": 9127,
      "Ġagreement": 9128,
      "Sort": 9129,
      "rat": 9130,
      "eting": 9131,
      "learn": 9132,
      "ĠAutom": 9133,
      "Ġatmosphere": 9134,
      "DS": 9135,
      "NE": 9136,
      "Path": 9137,
      "ja": 9138,
      "Ġ).": 9139,
      "itter": 9140,
      "Ġmig": 9141,
      "ĠMer": 9142,
      "usive": 9143,
      "åĪĨ": 9144,
      "Ġpropagation": 9145,
      "projecteuclid": 9146,
      "Ġinterpolation": 9147,
      "autiful": 9148,
      "Sto": 9149,
      "Ġfrag": 9150,
      "Ġbec": 9151,
      "ĠCambridge": 9152,
      "osure": 9153,
      "ĠDet": 9154,
      "ĠHand": 9155,
      "ĠLight": 9156,
      "heme": 9157,
      "ĠÎ²": 9158,
      "','": 9159,
      "ä¸Ģ": 9160,
      "Ġdriver": 9161,
      "ĠGeometric": 9162,
      "NT": 9163,
      "ĠEM": 9164,
      "Ġ$$=": 9165,
      ")=-": 9166,
      "xxxx": 9167,
      "Ġresonance": 9168,
      "ĠAdvanced": 9169,
      "ipped": 9170,
      "ji": 9171,
      "Ð½": 9172,
      "Ġdru": 9173,
      "Ġforgot": 9174,
      "0001": 9175,
      "theorem": 9176,
      "Ġextensive": 9177,
      "Ġconfirm": 9178,
      "Ġ${{\\": 9179,
      "variable": 9180,
      "Ġtwist": 9181,
      "written": 9182,
      "Ġ250": 9183,
      "ĠDen": 9184,
      "ĠLED": 9185,
      "Ġasset": 9186,
      "Ġcosm": 9187,
      "ÂłÂłÂłÂłÂłÂłÂłÂłÂłÂłÂłÂłÂłÂłÂłÂł": 9188,
      ")^{\\": 9189,
      "HA": 9190,
      "^(-": 9191,
      "factor": 9192,
      "Ġsand": 9193,
      "Ġacade": 9194,
      "Ġinclusion": 9195,
      "Ġscripts": 9196,
      "Ġbundles": 9197,
      "ĠOverview": 9198,
      "General": 9199,
      "ĠMicrosoft": 9200,
      "jpg": 9201,
      "Ġwra": 9202,
      "owski": 9203,
      "ĠSP": 9204,
      "ĠFis": 9205,
      "ĠLicense": 9206,
      "csv": 9207,
      "Ġsplitting": 9208,
      "algebras": 9209,
      "Ġparabola": 9210,
      "Don": 9211,
      "ico": 9212,
      "oretic": 9213,
      "uster": 9214,
      "ideos": 9215,
      "ĠReference": 9216,
      "Ġscope": 9217,
      "umulative": 9218,
      "Identi": 9219,
      "Sc": 9220,
      "\\}\\": 9221,
      "element": 9222,
      "Ġnoted": 9223,
      "Ġ69": 9224,
      "Ġ128": 9225,
      "Ġtransitions": 9226,
      "ĠSummary": 9227,
      "ĠSeminar": 9228,
      "``````": 9229,
      "Ġdollars": 9230,
      "Ok": 9231,
      "Tex": 9232,
      "ially": 9233,
      "mas": 9234,
      "zer": 9235,
      "onom": 9236,
      "ĠPred": 9237,
      "Ġorbits": 9238,
      "ĠLecture": 9239,
      "Ġdispers": 9240,
      "Ġ978": 9241,
      "Ġcolour": 9242,
      "Ġreader": 9243,
      "alleng": 9244,
      "Ġremark": 9245,
      "Before": 9246,
      "Object": 9247,
      "Sample": 9248,
      "tract": 9249,
      "ĠIEEE": 9250,
      "ĠSam": 9251,
      "sof": 9252,
      "Ġfrequently": 9253,
      "eqn": 9254,
      "Ġordinal": 9255,
      "Ġclaims": 9256,
      "ĠDirac": 9257,
      "Ġcongruent": 9258,
      "Ġindustry": 9259,
      "Ġdeterministic": 9260,
      "Sep": 9261,
      "gue": 9262,
      "ĠWar": 9263,
      "ĠGame": 9264,
      "Ġloading": 9265,
      "ĠJames": 9266,
      "ferent": 9267,
      "Ġobserver": 9268,
      "Ġplanar": 9269,
      "Ġprompt": 9270,
      "Introduction": 9271,
      "ĠTom": 9272,
      "ĠPRO": 9273,
      "soci": 9274,
      "Ġprepared": 9275,
      "ĠĠĠĠĠĠĠĠĠĠ": 9276,
      "Ġincrement": 9277,
      "Ġrecorded": 9278,
      "KE": 9279,
      "hr": 9280,
      "Ġbirth": 9281,
      "Ġprefix": 9282,
      "Ġproducing": 9283,
      "}+{": 9284,
      "Ġolder": 9285,
      "SU": 9286,
      "joy": 9287,
      "Ġyoung": 9288,
      "ĠGit": 9289,
      "alling": 9290,
      "Ġ73": 9291,
      "optim": 9292,
      "111": 9293,
      "queness": 9294,
      "Ġ-->": 9295,
      "!!!!": 9296,
      "rinsic": 9297,
      "âĻ": 9298,
      "Ġbag": 9299,
      "isp": 9300,
      "ĠGlobal": 9301,
      "Ġheads": 9302,
      "Ġexamine": 9303,
      "\\}$.": 9304,
      "lay": 9305,
      "pu": 9306,
      "Ġannot": 9307,
      "Ġvib": 9308,
      "Ġupload": 9309,
      "ectures": 9310,
      "105": 9311,
      "next": 9312,
      "Ġstronger": 9313,
      "Ġcharacterized": 9314,
      "Expand": 9315,
      "Ġinstrument": 9316,
      "Ġinfra": 9317,
      "Ġluck": 9318,
      "seq": 9319,
      "identi": 9320,
      "ĠBra": 9321,
      "phase": 9322,
      "Ġshorter": 9323,
      "pired": 9324,
      "Ġgrade": 9325,
      "Ġevaluating": 9326,
      "ĠMultiply": 9327,
      "Ġgalaxy": 9328,
      "Every": 9329,
      "Python": 9330,
      "isen": 9331,
      "ĠHad": 9332,
      "ermany": 9333,
      "Ġfacts": 9334,
      "files": 9335,
      "Ġattempts": 9336,
      "Ġscientists": 9337,
      "cluded": 9338,
      "_________________": 9339,
      "ĠRevised": 9340,
      "oe": 9341,
      "Ġbunch": 9342,
      "Ġinfe": 9343,
      "ola": 9344,
      "ĠAir": 9345,
      "ama": 9346,
      "osc": 9347,
      "ĠInequ": 9348,
      "Ġ61": 9349,
      "orsion": 9350,
      "Ġconfigure": 9351,
      "Ġrotational": 9352,
      "FL": 9353,
      "tfrac": 9354,
      "Ġwa": 9355,
      "ester": 9356,
      "Ġretrie": 9357,
      "ĠMr": 9358,
      "pler": 9359,
      "ĠGreek": 9360,
      "usr": 9361,
      "Ġemphas": 9362,
      "Ġattributes": 9363,
      "Ġvisit": 9364,
      "Ġaffected": 9365,
[...]
